▁, 866900
▁ 751280
s 584223
▁. 384457
的 330814
▁the 313890
▁。 244230
▁and 222654
▁to 208649
▁a 199264
' 174459
▁of 171623
t 169294
▁in 148466
▁that 140055
▁i 130281
▁it 111859
ing 108562
▁we 107333
d 103371
re 99880
▁you 99806
▁is 94032
ed 86110
在 79498
是 75222
e 71297
n 70535
m 69224
▁this 69050
▁" 67771
▁? 67556
了 65659
y 64794
▁so 62960
▁我 61962
▁for 53067
我 52473
er 50932
有 50710
ly 49419
: 49326
▁they 48483
c 48388
不 46984
▁was 46733
▁我們 46489
人 46377
我們 46091
o 45992
▁are 45966
一 43878
▁be 42604
▁but 42505
和 41242
▁have 41153
▁on 41054
會 39731
al 39242
▁with 39115
▁can 38100
▁what 38051
、 37519
上 37418
le 37338
g 36568
▁as 36565
到 33463
a 33027
ve 32240
▁at 32154
ic 32143
▁do 32094
來 31327
大 31269
▁not 30752
or 30531
▁about 30314
▁there 29561
ll 29452
▁my 29428
你 28948
▁all 28790
ri 28462
▁me 28406
說 28335
一個 27249
▁one 27170
th 27091
中 26941
r 26905
b 26738
ar 26453
ur 26265
in 26214
▁or 26170
▁like 26161
▁an 25959
很 25799
這 25762
▁people 25303
要 25172
▁our 24901
▁he 24891
es 24795
u 24715
對 24584
▁「 24414
▁」 24314
▁from 24072
ce 23914
▁if 23761
te 23645
能 23486
▁e 23348
ent 23121
好 22660
h 22505
用 22445
ation 22397
▁de 22379
▁f 22162
都 21942
p 21849
時 21734
▁when 21624
▁just 21357
li 21267
ter 21173
地 21091
k 21060
他們 21055
it 20681
▁在 20620
出 20498
▁now 20475
▁these 20472
▁con 20449
ate 19795
就 19756
▁這 19589
▁know 19565
▁但 19563
▁us 19506
▁out 19477
年 19469
ion 19439
去 19358
可以 19334
ch 19208
▁p 19119
f 19097
▁by 19084
所 18891
il 18881
▁how 18827
被 18792
▁because 18713
▁up 18446
也 18418
子 18402
這些 18319
這個 18191
▁你 18019
▁more 17815
▁them 17644
on 17529
▁their 17470
為 17195
▁who 17128
▁your 17006
做 17002
un 16833
▁had 16730
著 16603
ne 16560
▁st 16560
▁see 16505
very 16465
過 16425
下 16342
▁no 16249
▁were 16190
▁would 16105
▁c 15959
它 15956
ity 15802
en 15699
w 15604
ck 15579
把 15524
▁他們 15475
多 15473
沒有 15416
▁going 15316
他 15000
▁think 14992
▁get 14930
更 14769
ive 14745
於 14742
ers 14644
ra 14622
從 14576
成 14527
以 14470
▁some 14384
el 14379
想 14323
小 14050
▁go 14026
▁which 13997
▁ex 13939
體 13852
生 13817
an 13797
▁world 13685
ment 13672
▁way 13669
▁time 13594
最 13562
看 13551
ul 13469
▁other 13398
個 13394
▁really 13382
as 13277
裡 13208
得 13103
▁here 13092
▁b 13074
性 13067
者 13054
▁co 12893
▁then 12855
▁make 12839
▁has 12692
將 12636
▁所以 12596
▁will 12588
ies 12530
與 12492
▁don 12491
ol 12476
▁mo 12450
開始 12350
▁into 12291
ro 12288
▁po 12264
的人 12247
而 12197
ge 12137
tra 12134
家 12050
ph 11914
▁w 11754
▁where 11749
▁she 11701
讓 11679
心 11590
ru 11529
v 11464
面 11405
▁could 11392
est 11388
就是 11385
ver 11374
那 11333
知道 11301
▁un 11236
▁di 11224
行 11189
力 11130
▁years 11122
z 11109
▁look 11068
▁even 11046
▁ba 10938
com 10936
▁want 10906
▁work 10889
▁sp 10849
vi 10844
▁他 10843
▁因為 10822
▁need 10816
x 10812
後 10811
之 10799
▁su 10794
▁new 10780
▁actually 10728
可 10724
或 10709
非常 10694
分 10683
lu 10630
▁right 10585
▁over 10577
給 10546
ci 10526
需要 10484
▁been 10435
像 10419
▁這是 10408
▁things 10377
▁而 10372
tion 10350
比 10337
tic 10278
ir 10245
i 10219
不是 10163
點 10148
▁它 10141
ted 10102
數 10072
▁well 10057
able 10035
▁pro 10019
還 9996
▁ma 9995
age 9929
化 9902
those 9885
la 9870
us 9862
高 9838
op 9782
▁first 9735
ist 9701
天 9630
to 9612
ant 9578
▁than 9572
l 9531
長 9518
動 9494
斯 9485
ad 9429
我的 9426
ical 9400
法 9377
ting 9372
▁say 9312
id 9307
ect 9302
mp 9301
is 9274
▁; 9268
ha 9249
▁vi 9226
▁her 9213
▁two 9212
ma 9162
發 9134
▁br 9121
ig 9116
▁also 9116
開 9115
pe 9110
▁dis 9103
同 9103
▁his 9101
手 9058
機 9044
▁most 9015
自己 8934
學 8929
▁back 8908
進 8874
▁! 8855
▁something 8850
當 8815
▁ra 8806
▁life 8791
ally 8787
fe 8739
ok 8739
▁take 8717
5 8711
位 8711
加 8705
ence 8675
ction 8649
事 8646
前 8621
特 8592
na 8574
. 8569
▁any 8495
可能 8480
um 8470
無 8467
▁much 8427
公 8406
度 8395
ance 8326
一些 8305
▁come 8298
at 8293
合 8290
ke 8288
im 8277
水 8266
▁said 8261
量 8260
▁ro 8249
外 8238
▁only 8230
相 8211
▁part 8194
ry 8175
▁many 8168
co 8161
▁every 8149
mo 8100
▁bo 8098
▁sh 8096
問題 8072
入 8062
看到 8049
嗎 7986
qu 7982
已經 7946
再 7945
作 7934
我們的 7855
那些 7841
發現 7813
什麼 7794
▁ho 7788
這樣 7785
iv 7765
研究 7762
cu 7732
▁got 7687
正 7674
感 7672
▁g 7655
名 7632
▁talk 7625
本 7603
▁let 7590
▁lot 7582
▁有 7547
ff 7543
▁thing 7538
回 7531
po 7506
氣 7485
理 7464
▁ca 7456
她 7430
ine 7426
放 7410
▁se 7404
兩 7397
沒 7387
▁human 7367
if 7365
▁little 7358
▁en 7350
▁kind 7337
及 7337
min 7335
▁li 7322
如何 7304
ated 7299
and 7284
pa 7259
bi 7249
自 7241
國 7227
▁但是 7226
這種 7222
一樣 7198
世界 7197
ld 7188
業 7188
les 7182
跟 7166
頭 7159
2 7139
tu 7137
部 7135
▁car 7116
內 7078
起 7073
只 7071
0 7069
現在 7059
種 7028
意 7007
no 6999
▁different 6990
平 6977
的是 6970
▁la 6969
利 6957
發生 6955
▁through 6938
▁pre 6932
▁good 6925
app 6924
物 6909
改變 6906
向 6894
▁這些 6887
de 6822
▁然後 6813
你們 6812
ous 6768
愛 6766
▁did 6752
見 6749
▁why 6748
如 6721
新 6704
克 6688
sh 6654
期 6652
場 6644
常 6644
▁around 6637
▁use 6630
道 6626
me 6624
▁being 6620
間 6613
圖 6590
方 6564
重 6529
▁show 6501
其他 6485
定 6478
先 6462
色 6461
▁da 6455
▁down 6444
國家 6440
ng 6439
美國 6438
cr 6430
▁k 6429
▁tell 6409
使 6408
工 6403
身 6389
拉 6384
人們 6328
▁j 6322
end 6302
三 6298
真的 6284
▁她 6276
pr 6259
ia 6247
▁ta 6245
▁現在 6220
處 6211
所有 6207
4 6191
車 6174
cy 6169
▁same 6162
▁idea 6144
人類 6142
▁是 6138
he 6133
▁gr 6132
工作 6107
am 6105
ful 6101
ti 6099
打 6083
▁那 6052
em 6034
ug 6027
ide 6021
di 6020
os 6019
問 6017
ain 6005
che 6004
幾 6004
你的 6003
ty 5992
爾 5980
邊 5952
帶 5948
十 5947
次 5947
▁如果 5945
▁comp 5940
走 5936
mi 5919
使用 5912
ho 5910
光 5892
信 5881
星 5879
fi 5872
明 5863
聽 5859
ary 5853
達 5838
▁day 5834
▁change 5831
ta 5828
太 5828
因為 5817
不會 5811
▁put 5786
每 5774
呢 5765
▁lo 5753
9 5751
ni 5741
認為 5738
lo 5737
受 5669
▁after 5657
海 5646
▁這個 5641
教 5635
任何 5629
能夠 5629
ish 5628
轉 5606
▁big 5597
全 5586
美 5571
▁fact 5570
保 5566
文 5562
此 5548
▁find 5532
ow 5528
▁system 5527
▁try 5525
才 5523
ot 5513
50 5508
▁start 5491
金 5489
▁great 5484
j 5477
-- 5471
線 5449
▁thank 5439
表 5414
它們 5408
花 5407
▁three 5402
其 5384
想要 5383
▁help 5377
ut 5373
par 5362
ian 5359
原 5358
許多 5354
設計 5347
兒 5345
又 5344
▁si 5339
演 5335
▁place 5334
視 5328
▁off 5326
wi 5321
談 5298
大家 5289
▁dr 5282
電 5271
▁mean 5264
▁today 5260
實 5245
由 5227
民 5219
ca 5194
ag 5191
▁per 5190
fa 5177
ize 5176
▁own 5167
▁called 5161
孩子 5152
wa 5136
代 5119
亞 5117
情 5109
bo 5104
字 5089
▁doing 5073
都是 5057
vo 5046
一種 5037
提 5037
▁al 5035
▁就 5029
ber 5016
▁question 5014
流 5014
時間 5013
ors 5007
ition 5003
▁percent 4989
系統 4988
路 4984
7 4975
類 4972
無法 4958
的時候 4948
8 4944
▁r 4943
交 4942
收 4935
▁made 4927
ac 4920
主 4913
▁should 4906
der 4904
bu 4901
gen 4899
馬 4890
形 4878
▁end 4871
群 4870
▁man 4868
ga 4864
led 4854
只是 4853
應該 4853
西 4849
書 4844
▁give 4840
四 4837
器 4836
1 4832
mer 4815
德 4806
傳 4790
3 4785
變 4784
寫 4763
等 4761
▁real 4755
知 4740
萬 4740
ran 4732
因 4726
現 4723
白 4721
▁high 4716
希望 4715
五 4702
通 4699
卻 4695
日 4691
ness 4688
6 4685
▁didn 4683
必須 4669
難 4665
ial 4659
話 4653
接 4648
強 4625
ture 4615
fin 4610
▁before 4593
員 4586
▁20 4574
基 4570
片 4569
樣 4557
▁love 4554
ba 4553
士 4552
論 4549
女 4547
ab 4541
▁him 4534
則 4533
指 4533
ip 4530
即 4521
百 4515
▁each 4513
他們的 4513
▁brain 4511
很多 4505
覺得 4483
觀 4470
▁cha 4464
得到 4464
▁came 4460
權 4456
▁might 4453
pu 4450
ible 4447
步 4446
▁當 4444
然 4444
型 4440
們 4438
了解 4436
反 4431
tro 4421
▁tri 4421
ure 4408
▁2 4403
怎麼 4402
來說 4396
▁understand 4391
▁year 4389
社會 4388
▁sa 4383
▁important 4363
▁still 4358
▁hi 4354
mon 4351
就會 4349
▁thought 4342
質 4331
▁never 4329
管 4323
上的 4319
▁mar 4299
極 4296
▁another 4295
這樣的 4285
中的 4282
▁last 4280
▁better 4278
影響 4275
cent 4272
ious 4271
log 4271
但 4271
land 4264
千 4259
深 4249
的事 4247
one 4240
% 4237
▁play 4233
例 4233
ten 4230
已 4222
▁started 4221
▁act 4220
讓我 4211
▁fun 4205
應 4204
失 4197
▁live 4184
ner 4183
ib 4179
真 4176
關 4152
ities 4146
▁design 4142
▁mu 4134
消 4132
’ 4131
生物 4131
程 4125
▁found 4124
ight 4123
師 4123
ite 4114
甚至 4113
▁long 4099
▁19 4093
ger 4088
各 4086
▁如果你 4085
其實 4080
制 4078
病 4076
▁too 4072
con 4063
▁together 4060
一點 4060
成為 4059
創造 4057
完全 4056
取 4055
ard 4051
▁而且 4048
案 4046
ap 4045
不同 4044
確 4043
▁000 4035
pl 4033
uc 4033
the 4024
出來 4019
gg 4018
立 4018
ual 4017
▁對 4010
老 4008
專 4007
剛 3996
歲 3995
自己的 3994
結 3993
▁number 3986
▁art 3985
▁water 3982
▁school 3980
ative 3975
的問題 3971
並 3970
張 3968
品 3966
▁example 3956
別 3956
式 3954
▁women 3952
認 3943
▁able 3940
算 3940
▁ti 3939
▁point 3937
東西 3937
之後 3934
公司 3928
件 3927
av 3925
非 3925
tor 3918
其中 3918
各位 3913
ward 3910
▁也 3903
▁few 3899
起來 3895
最後 3891
▁story 3890
▁我想 3887
少 3886
格 3883
▁cl 3880
奇 3873
這裡 3864
ex 3860
組 3860
▁inter 3859
nd 3855
▁problem 3852
act 3851
▁hand 3846
該 3846
▁under 3841
▁next 3840
吧 3838
遠 3838
va 3826
▁feel 3826
快 3822
lar 3814
▁am 3814
▁bit 3813
▁million 3810
bl 3809
▁call 3807
引 3800
for 3788
▁♫ 3788
畫 3782
be 3777
mit 3772
相信 3767
▁does 3760
哪 3757
的東西 3753
目 3750
▁home 3738
ism 3732
近 3728
里 3728
的方式 3726
單 3718
害 3716
▁data 3715
離 3712
議 3703
▁may 3700
▁health 3699
請 3695
▁between 3693
▁imp 3688
▁grow 3681
住 3680
科技 3675
維 3666
也是 3665
ating 3658
▁again 3645
那個 3643
生活 3629
如此 3628
結果 3628
這是 3626
球 3623
拿 3616
整 3615
告訴 3614
▁went 3613
費 3613
腦 3612
眼 3610
解決 3601
正在 3599
press 3598
▁從 3595
pla 3586
▁used 3584
以及 3582
裝 3577
▁cor 3574
黑 3570
還是 3568
- 3560
不能 3560
更多 3560
一下 3558
微 3558
他的 3557
集 3556
只有 3552
安 3552
▁care 3551
決定 3549
想像 3542
▁v 3541
▁ask 3536
錢 3533
▁far 3514
空 3514
一直 3513
▁believe 3512
do 3507
▁become 3505
創 3505
生命 3504
層 3502
飛 3492
的地方 3491
是個 3486
過去 3479
20 3474
▁ago 3472
▁war 3469
總 3469
進行 3468
rr 3467
不同的 3464
還有 3464
▁plan 3459
解 3454
▁second 3452
對於 3449
為了 3448
▁course 3444
▁turn 3441
▁gu 3435
直 3433
▁small 3431
▁col 3428
置 3427
細胞 3421
▁technology 3418
巴 3417
報 3415
▁謝謝 3411
共 3411
素 3411
cal 3409
▁read 3409
發展 3408
▁dec 3406
錯 3402
足 3399
未來 3396
▁na 3389
導 3389
像是 3388
關於 3381
便 3370
做的 3370
pp 3369
喜歡 3368
▁space 3366
ral 3364
▁hard 3364
▁maybe 3359
變成 3356
調 3354
如果 3353
節 3353
chi 3346
地球 3345
活 3342
死 3341
命 3340
早 3331
找到 3330
英 3329
pi 3315
man 3311
▁children 3311
▁就是 3306
▁old 3303
謝 3301
待 3299
率 3294
red 3291
▁因此 3287
▁trans 3283
▁person 3281
▁10 3279
▁light 3279
首 3277
房 3274
選 3270
二 3267
fl 3259
qui 3258
ak 3257
是在 3256
存在 3254
建 3251
ose 3241
推 3231
▁power 3229
來自 3229
故事 3223
▁doesn 3222
照 3221
越 3217
king 3215
條 3215
電腦 3213
感覺 3206
產生 3206
測 3204
同時 3202
▁four 3201
低 3201
玩 3199
選擇 3197
▁less 3195
經濟 3194
第一 3192
女性 3183
port 3179
▁always 3179
方式 3179
hu 3175
▁form 3173
▁experience 3172
▁還有 3172
網路 3169
今天 3166
ep 3165
往 3163
oc 3162
止 3158
熱 3157
存 3152
運 3145
▁你們 3140
密 3131
聯 3122
情況 3121
科學 3119
▁ever 3118
服 3114
果 3109
新的 3104
當時 3104
並不 3103
真正 3099
門 3099
覺 3098
▁cap 3086
▁並 3086
▁create 3085
▁它們 3084
經 3077
設 3072
一位 3065
舉 3064
per 3063
比較 3062
簡單 3062
組織 3061
▁wanted 3059
部分 3056
技術 3054
ever 3048
神 3048
▁move 3047
絕 3045
樂 3043
城市 3038
看看 3035
▁lead 3024
差 3023
標 3021
兩個 3017
▁men 3010
台 3010
稱 3003
區 3002
驚 2998
▁mis 2996
go 2993
政府 2987
火 2986
阿 2982
大腦 2977
▁away 2976
象 2976
▁working 2975
朋友 2971
落 2964
── 2960
卡 2960
cho 2959
▁sort 2955
讀 2955
less 2948
億 2948
▁creat 2946
細 2944
計 2944
ling 2941
▁looking 2938
改 2938
ator 2932
傷 2931
顯 2931
動物 2929
聲 2927
▁face 2924
▁set 2914
▁large 2909
這麼 2905
▁everything 2896
產 2894
ki 2893
能力 2892
資料 2891
羅 2887
林 2884
在這 2882
▁done 2881
▁country 2878
出現 2878
▁means 2877
另一 2876
▁sta 2875
半 2873
環境 2863
▁rep 2860
是一個 2858
ome 2854
是我們 2854
▁reason 2850
全球 2849
row 2844
號 2844
連 2843
提供 2836
角 2836
▁while 2835
健康 2834
40 2828
抗 2827
超 2827
尼 2825
口 2822
▁sub 2820
use 2819
過程 2819
不知道 2815
之一 2814
幫助 2813
布 2805
▁whole 2804
持 2804
一次 2801
▁africa 2797
是否 2795
某 2794
▁open 2792
▁times 2791
月 2790
未 2790
▁future 2789
一起 2788
▁red 2785
記 2783
段 2782
▁sw 2776
▁但我 2776
▁process 2773
19 2772
態 2771
▁met 2769
機會 2768
▁information 2767
為什麼 2757
牠們 2750
▁moment 2748
是什麼 2748
查 2745
spect 2743
約 2737
原因 2734
▁enough 2732
▁social 2732
效 2732
que 2731
▁mil 2730
棒 2726
▁win 2724
▁building 2720
擊 2720
叫 2719
是因為 2719
整個 2712
吃 2711
思考 2711
▁run 2709
關係 2707
商 2706
性的 2706
望 2706
每個 2705
▁without 2704
▁所以我 2704
一切 2704
造 2701
ang 2700
▁five 2699
講 2697
▁mind 2694
▁job 2693
身體 2690
▁thinking 2688
▁body 2687
有些 2687
元 2686
▁earth 2685
排 2685
line 2683
影 2682
ie 2681
▁ja 2680
▁best 2679
▁ju 2675
ton 2674
▁add 2672
15 2671
ric 2671
▁case 2669
吸 2667
室 2667
照片 2666
▁name 2656
學習 2642
有一個 2642
之間 2638
包 2630
行為 2627
ob 2626
▁food 2620
症 2619
思 2618
停 2616
▁left 2615
▁walk 2615
展 2613
地方 2612
戰 2612
造成 2612
▁group 2611
之前 2608
▁kids 2607
資訊 2605
有人 2602
年前 2601
列 2598
學生 2598
魚 2597
成功 2594
▁這就是 2591
找 2585
證 2579
▁keep 2578
獨 2578
▁lives 2577
任 2577
▁research 2575
藝術 2574
份 2572
眾 2570
▁pi 2566
▁sign 2565
▁guy 2564
時候 2562
殺 2559
網 2558
留 2556
世 2555
掉 2555
所有的 2551
▁money 2550
例子 2550
變得 2544
▁answer 2539
透過 2539
ized 2538
▁young 2538
石 2536
適 2536
▁making 2532
ability 2530
感到 2528
風 2528
座 2527
▁imagine 2525
基本 2525
重要 2521
▁book 2520
getting 2519
▁head 2514
▁sense 2511
事情 2511
計畫 2508
讓我們 2508
波 2507
▁develop 2506
▁family 2506
方法 2506
▁computer 2501
第二 2498
些 2495
val 2488
▁side 2487
數據 2485
▁project 2482
▁teach 2482
精 2478
▁1 2477
▁city 2474
事實 2474
▁以及 2471
語 2471
個人 2466
· 2465
六 2464
▁stand 2463
▁free 2457
何 2456
▁connect 2454
市 2454
的事情 2454
預 2454
媽 2452
級 2450
州 2449
擁有 2448
60 2445
久 2440
規 2437
並且 2436
▁energy 2431
非洲 2429
了一個 2427
基因 2426
的故事 2426
投 2423
蘭 2422
▁fo 2420
▁matter 2420
試 2419
▁200 2417
買 2417
就像 2415
聲音 2412
若 2412
▁bring 2411
景 2408
fu 2406
▁3 2406
▁planet 2405
富 2405
▁close 2404
建築 2393
▁science 2392
▁build 2388
lin 2384
山 2384
題 2384
養 2382
送 2380
學家 2377
自然 2374
血 2373
▁such 2372
▁hope 2371
教育 2366
染 2366
的話 2366
▁事實上 2363
誰 2362
限 2362
▁sound 2359
▁seem 2357
▁across 2353
▁picture 2352
今 2352
▁pass 2351
安全 2349
▁room 2348
▁remember 2347
主義 2344
製造 2343
射 2341
納 2341
或是 2339
客 2337
▁both 2336
▁share 2335
土 2334
威 2331
可能會 2329
的時間 2326
▁basic 2324
激 2324
的工作 2319
幸 2317
ship 2316
▁often 2316
空間 2313
▁allow 2312
▁global 2310
▁line 2310
▁當然 2310
學校 2309
▁air 2308
▁government 2307
到了 2305
策 2304
團 2302
▁就像 2301
▁product 2300
音樂 2300
食物 2300
告 2299
▁stop 2296
異 2296
律 2295
資 2292
▁probably 2284
息 2284
處理 2282
居 2279
建立 2278
普 2273
站 2272
夠 2270
都有 2270
注 2267
hi 2266
▁week 2263
底 2262
食 2257
ped 2250
伊 2249
曾 2248
▁once 2247
然後 2241
穿 2240
廣 2239
滿 2236
善 2233
▁那是 2230
up 2225
ron 2223
拍 2223
換 2223
▁someone 2220
運動 2219
▁animal 2218
塊 2216
▁pretty 2213
斷 2210
合作 2207
破 2207
▁fra 2206
own 2202
▁child 2202
特別 2202
having 2198
▁else 2197
▁image 2195
僅 2193
文化 2192
目標 2191
隨 2191
系 2190
負 2190
刻 2184
▁happened 2183
至 2180
所以 2178
12 2176
▁sea 2175
疾病 2174
晚 2173
▁countries 2172
▁pain 2171
歷史 2171
▁simple 2168
背 2168
18 2166
除 2165
她們 2163
藥 2162
代表 2161
▁anything 2159
▁community 2156
▁learn 2154
▁girl 2152
南 2152
幫 2150
▁effect 2149
▁gene 2148
▁business 2147
▁control 2143
▁asked 2141
10 2140
免 2140
▁half 2138
有關 2138
助 2137
準 2135
▁且 2132
辦 2131
政治 2130
quite 2128
▁billion 2124
▁single 2123
只要 2123
意思 2123
將會 2122
注意 2122
音 2122
▁30 2121
才能 2121
▁living 2120
▁你可以 2120
▁later 2118
就能 2117
降 2117
並不是 2115
驗 2115
▁sure 2114
令人 2114
圍 2110
▁mov 2109
超過 2109
▁yet 2108
▁eye 2107
▁interesting 2106
實驗 2106
治療 2106
都會 2105
▁所以我們 2103
責 2103
▁age 2101
有個 2101
痛 2099
笑 2098
另一個 2095
▁public 2094
童 2091
gue 2089
界 2088
移 2088
80 2086
▁bad 2086
護 2086
述 2085
複雜 2084
核 2082
看起來 2082
ze 2080
▁saw 2079
▁study 2079
▁complete 2078
▁environment 2076
▁wonder 2070
清 2070
源 2068
▁cur 2066
科 2066
爭 2065
米 2062
男 2059
▁happen 2058
軍 2058
▁black 2056
《 2055
》 2055
醫生 2054
在這裡 2053
神經 2053
大約 2052
▁treat 2051
影片 2051
▁coming 2049
狀 2049
下來 2046
社區 2046
幾乎 2045
利用 2041
▁hear 2038
意識 2038
▁seen 2033
分享 2033
方面 2032
▁du 2031
▁instead 2031
重要的 2031
▁disease 2030
控制 2030
一天 2029
▁lab 2027
夫 2027
項 2027
▁當我 2024
▁yes 2023
▁cells 2021
▁model 2021
▁music 2021
way 2020
▁already 2020
相當 2018
年輕 2017
古 2015
] 2014
▁almost 2014
▁test 2014
rap 2012
假 2012
的世界 2012
終 2012
▁top 2011
家庭 2011
30 2010
活動 2005
詞 2004
▁days 2003
▁deep 2003
▁thousand 2001
istic 1998
▁或是 1996
求 1996
▁possible 1994
依 1994
目前 1994
統 1991
進入 1991
▁game 1990
具 1989
▁states 1987
樹 1986
靠 1985
lock 1984
接受 1982
溫 1982
攝 1981
回到 1980
▁heart 1979
▁watch 1979
容易 1979
▁machine 1978
料 1978
她的 1977
史 1974
▁level 1973
念 1971
較 1971
▁nothing 1969
壞 1969
▁rest 1968
▁為什麼 1967
短 1967
▁whether 1966
▁history 1963
▁house 1963
▁inside 1962
候 1961
術 1961
▁patient 1960
▁sometimes 1957
▁happens 1953
個月 1953
▁gl 1951
營 1950
gi 1949
▁har 1948
一定 1945
通常 1943
▁leg 1942
反應 1942
靈 1942
答案 1941
是我 1940
皮 1940
▁如果我們 1938
▁dollars 1934
採 1934
day 1933
保護 1933
▁within 1932
不要 1931
言 1931
支 1925
有點 1923
參與 1922
百萬 1922
做了 1921
▁myself 1919
復 1918
▁speak 1917
意義 1914
▁problems 1909
觸 1909
▁six 1905
考 1905
院 1905
人生 1904
▁low 1902
世界上 1900
小時 1899
多少 1897
且 1895
▁mother 1892
油 1892
ets 1891
▁piece 1891
▁我們可以 1891
製 1891
▁words 1887
臨 1886
衛 1886
犯 1885
做出 1884
價值 1884
政 1884
旅 1883
▁since 1881
哈 1879
端 1879
慢 1877
we 1876
▁我認為 1874
致 1874
世紀 1872
巨 1872
農 1872
菌 1871
大學 1867
工具 1867
警 1866
劇 1865
▁program 1863
ought 1862
大部分 1862
救 1862
▁language 1861
件事 1860
▁那麼 1859
構 1859
▁stuff 1858
▁而是 1858
完成 1858
想法 1858
▁until 1856
我想 1855
承 1855
▁law 1854
▁order 1853
親 1853
播 1852
十年 1851
▁stories 1847
隊 1847
領 1846
▁figure 1845
官 1845
怕 1845
醫 1845
成長 1844
苦 1843
▁certain 1842
▁discover 1842
追 1842
▁organ 1841
不到 1841
完 1840
▁接著 1839
宇宙 1836
語言 1836
▁state 1833
在一起 1832
升 1830
各種 1830
▁particular 1829
▁class 1827
... 1824
怪 1823
盡 1823
▁self 1820
▁wrong 1820
很好 1820
挑戰 1819
舞 1817
科學家 1816
哥 1815
▁goes 1813
益 1811
▁minute 1807
▁prop 1807
課 1807
監 1806
自由 1804
死亡 1800
狀況 1799
中心 1795
的方法 1795
light 1789
▁wasn 1789
▁entire 1786
的想法 1786
▁night 1784
機器人 1783
繼續 1782
▁everyone 1780
▁true 1780
社 1779
實際上 1777
▁american 1775
▁robot 1775
森 1773
也會 1771
▁[ 1770
切 1770
做到 1769
聽到 1769
速 1769
▁讓我們 1768
▁video 1764
仍然 1763
尋 1763
屬 1762
▁team 1761
▁hundred 1760
▁months 1757
▁saying 1756
▁step 1755
▁though 1755
han 1753
▁result 1753
▁full 1752
重新 1752
紅 1750
裏 1749
united 1748
▁fast 1748
▁woman 1748
努力 1748
力量 1747
讓你 1747
每天 1746
劃 1745
▁challenge 1743
▁must 1743
ach 1741
小孩 1739
印 1738
模 1738
這件事 1738
把它 1736
會有 1736
必 1735
70 1734
那麼 1734
修 1733
模式 1733
解釋 1732
際 1732
包括 1730
叫做 1729
用來 1729
▁issue 1728
▁knew 1727
▁你會 1727
▁past 1726
11 1725
▁cost 1724
而言 1724
遊戲 1724
持續 1723
太陽 1722
易 1720
派 1720
階 1720
▁exist 1719
就可以 1719
八 1718
嘗試 1718
理解 1718
中國 1716
機器 1715
勢 1713
bb 1712
行動 1711
值 1710
▁meet 1706
冰 1706
可以看到 1703
▁amazing 1702
▁cancer 1702
▁sex 1701
價 1700
突 1699
試著 1699
連結 1699
付 1698
患 1698
經歷 1698
▁market 1697
義 1697
▁force 1694
概念 1692
看見 1692
▁scientist 1691
優 1691
帶來 1691
別人 1688
倍 1685
河 1680
▁kill 1679
▁individual 1677
▁invest 1676
▁不過 1676
▁100 1675
▁或者 1675
歌 1675
身上 1675
北 1674
境 1673
革 1673
不斷 1672
職 1672
左 1670
▁became 1669
範 1667
▁against 1666
板 1666
▁dur 1665
經驗 1665
園 1664
▁micro 1659
▁value 1659
配 1658
防 1658
街 1657
▁education 1654
頓 1654
作品 1652
含 1651
顯示 1651
運作 1644
▁friends 1642
▁比如 1642
的生活 1642
▁pay 1640
▁learned 1639
增加 1639
檢 1639
跑 1638
▁cause 1637
▁train 1637
▁我要 1636
面對 1636
積 1635
▁beautiful 1634
▁term 1634
通過 1633
▁follow 1632
以前 1632
病人 1632
電影 1632
200 1630
當中 1630
▁collect 1629
雙 1629
或許 1627
牠 1627
鏡 1627
▁everybody 1626
環 1624
互 1623
▁oh 1622
印度 1622
週 1622
▁當你 1621
▁bur 1619
七 1619
智慧 1619
▁bio 1616
紙 1615
▁heard 1614
▁star 1614
賽 1614
van 1613
倫 1613
啊 1613
句 1612
記得 1611
清楚 1610
疑 1610
grad 1607
蓋 1607
受到 1606
也有 1604
▁leave 1603
衝 1603
協助 1599
女孩 1599
90 1598
▁interest 1598
蟲 1598
觀察 1596
form 1595
人口 1595
▁也許 1594
▁exactly 1593
麗 1586
out 1585
▁support 1583
參 1583
taking 1582
▁mass 1582
▁drug 1581
▁personal 1580
▁engine 1577
▁clear 1576
▁drive 1575
▁difference 1574
初 1573
唯一 1573
▁color 1572
▁flo 1572
部份 1572
接下來 1570
▁themselves 1568
右 1568
準備 1568
第一個 1568
事物 1567
緊 1567
ology 1566
▁students 1566
▁super 1565
分鐘 1565
架 1565
真實 1565
隻 1564
容 1563
▁company 1561
▁safe 1560
▁god 1559
▁sun 1559
▁也就是 1559
描 1559
略 1558
臉 1558
年代 1554
▁ocean 1553
周 1553
▁object 1551
▁society 1551
▁natural 1550
漸 1550
資源 1550
▁couple 1549
幾個 1549
▁risk 1548
針 1548
備 1547
餐 1547
貧 1545
支持 1544
彈 1543
館 1543
▁protect 1541
曲 1541
結構 1540
怎樣 1539
華 1537
▁material 1536
一般 1535
敗 1533
母 1533
▁produce 1532
▁built 1531
主要 1531
跳 1531
▁cell 1530
▁view 1530
評 1530
▁front 1529
辦法 1528
▁listen 1527
缺 1527
▁decided 1526
▁然而 1526
海洋 1523
習 1523
恐 1522
據 1522
船 1522
▁hold 1521
顧 1520
肯 1519
▁along 1517
感受 1516
藥物 1516
根 1515
族 1513
那裡 1512
博 1511
總是 1509
▁但我們 1508
領域 1507
產品 1506
▁yea 1505
not 1504
窮 1502
▁focus 1501
▁species 1501
探 1501
某些 1500
▁common 1499
沙 1499
▁culture 1498
自我 1498
▁fish 1496
木 1496
▁ourselves 1495
離開 1493
治 1492
訊息 1492
同樣的 1490
而且 1490
如果你 1489
有趣的 1489
大概 1488
▁當我們 1487
介 1485
根本 1484
討論 1484
▁feeling 1483
寶 1481
▁experiment 1480
全世界 1480
▁india 1479
▁nature 1479
腳 1479
▁phone 1478
罪 1476
▁middle 1475
太空 1475
▁short 1474
迷 1473
塔 1472
呼 1471
數字 1471
父母 1471
▁death 1470
▁break 1468
錄 1468
▁deal 1467
▁word 1467
輸 1467
▁solution 1466
▁type 1463
▁america 1462
演講 1462
那樣 1462
生產 1460
▁spend 1459
不僅 1459
女人 1458
想到 1458
▁universe 1456
示 1454
在那裡 1452
程式 1452
▁write 1450
並沒有 1450
電話 1447
索 1446
▁difficult 1443
糟 1443
▁hours 1442
▁somebody 1441
▁sl 1440
▁south 1440
ization 1438
裡面 1436
市場 1435
病毒 1434
▁arm 1433
讓人 1433
▁雖然 1431
每一個 1430
▁於是 1429
作為 1429
▁bar 1427
▁white 1426
我們可以 1426
放在 1425
骨 1425
簡 1424
分子 1423
曾經 1421
諾 1421
這項 1421
頂 1421
▁wait 1420
一張 1420
仍 1420
移動 1420
▁rather 1419
亮 1419
彼此 1419
控 1419
醫療 1419
版 1418
▁fail 1416
▁learning 1416
企業 1413
看著 1413
避 1413
▁couldn 1412
聖 1412
艾 1412
聚 1411
有很多 1410
▁eat 1409
▁para 1409
▁center 1408
▁huge 1408
▁early 1407
潛 1407
碼 1407
軟 1407
▁complex 1405
惡 1405
執 1402
孩 1402
▁internet 1400
▁street 1400
喜 1400
輕 1400
▁economic 1398
智 1398
蛋 1398
▁emotion 1395
▁doctor 1394
▁je 1394
是一種 1394
▁itself 1393
▁happening 1392
塑 1392
地區 1391
一項 1390
取得 1390
▁reach 1388
物質 1388
▁behavior 1387
▁而我 1385
住在 1384
▁third 1381
團隊 1381
決 1380
▁fear 1379
麻 1379
▁felt 1377
有效 1377
第一次 1376
媒體 1374
建造 1374
服務 1374
不再 1373
福 1373
▁hy 1372
▁circ 1370
▁voice 1370
局 1369
施 1369
▁near 1368
▁die 1367
▁你知道 1367
典 1367
▁blood 1366
▁expect 1366
▁relationship 1366
困難 1366
散 1366
班 1366
碳 1366
肉 1364
懷 1361
永遠 1361
知識 1359
那時 1359
退 1358
▁green 1357
程度 1357
▁worked 1355
▁local 1353
嗯 1353
投資 1353
▁cut 1352
時代 1352
17 1351
讓他們 1351
▁parents 1350
這個問題 1350
▁population 1349
壓 1347
▁finally 1346
▁因為我 1346
▁created 1345
相關 1345
▁choice 1344
直接 1341
礎 1340
技 1338
東 1338
願 1337
疫 1336
睡 1336
▁dream 1334
是由 1334
速度 1333
理論 1332
美元 1332
紐約 1331
偏 1330
戶 1330
洛 1330
▁access 1329
類似 1329
ier 1328
▁decision 1328
銀 1328
戰爭 1327
▁outside 1326
來看 1326
毒 1326
洞 1326
紀 1325
▁structure 1324
▁companies 1323
手機 1323
最近 1323
興 1323
▁oka 1322
▁won 1321
票 1321
困 1320
奧 1319
▁least 1318
▁record 1318
一年 1318
察 1317
甚麼 1317
♫♫ 1316
▁reality 1315
二十 1315
很重要 1315
▁gre 1314
區域 1313
順 1313
▁political 1312
▁rule 1312
▁present 1311
坦 1311
暗 1311
▁climate 1309
不只是 1307
慮 1306
其他人 1304
遺 1304
混 1303
續 1303
藏 1303
青 1303
味 1302
一段 1300
▁network 1299
▁friend 1298
九 1298
▁impact 1297
伯 1297
16 1295
▁vari 1295
最終 1295
▁began 1294
雷 1292
▁perhaps 1290
表現 1290
▁amount 1288
爲 1288
給我 1288
開發 1288
▁yourself 1286
坐 1286
母親 1286
稱為 1286
▁fight 1285
▁poor 1285
編 1284
序 1282
暴 1282
14 1281
▁behind 1281
▁easy 1280
▁media 1280
爸 1280
▁count 1279
不可能 1279
▁pick 1278
確實 1278
變化 1278
領導 1277
▁main 1276
▁stay 1276
脫 1276
瑞 1275
角色 1275
— 1274
謂 1274
傳統 1271
有可能 1271
迫 1271
▁perfect 1270
興趣 1270
▁fall 1269
▁neuro 1269
賣 1269
複 1268
衣 1266
▁buy 1265
▁given 1265
什麽 1264
認識 1264
▁field 1262
正確 1262
能源 1262
藉 1262
▁manage 1261
或者 1261
訊 1261
▁boy 1260
增 1260
液 1260
第三 1260
距 1259
▁cities 1258
▁measure 1257
製作 1257
▁physical 1256
▁powerful 1256
務 1254
需 1254
能量 1252
鼓 1252
▁father 1251
關鍵 1250
另外 1249
那種 1249
▁他說 1248
▁movement 1247
三個 1247
禮 1247
棄 1246
英國 1246
▁gave 1244
令 1243
男人 1243
time 1238
實驗室 1238
刺 1237
失去 1236
隱 1236
▁wall 1235
發明 1235
表示 1235
▁key 1234
形成 1234
▁century 1233
▁longer 1233
氧 1233
▁tree 1232
▁york 1232
心理 1232
▁paper 1231
▁shape 1230
告訴我 1230
▁perform 1229
▁seven 1228
▁wo 1227
伴 1227
弱 1227
擴 1227
醒 1227
功能 1225
▁organization 1224
捕 1224
▁consider 1223
冷 1223
障 1223
▁generation 1221
但是 1221
某種 1220
絲 1220
越來越 1220
診 1218
▁simply 1217
許 1217
析 1215
現今 1215
管理 1215
阻 1215
展示 1214
作用 1213
很難 1213
情緒 1212
現實 1212
當然 1212
私 1212
▁conversation 1211
這麼做 1209
也可以 1208
勵 1208
數學 1206
均 1205
▁interact 1204
▁major 1204
第 1204
牛 1203
有什麼 1202
植物 1202
減少 1201
事件 1200
想想 1200
▁changed 1199
危 1199
內容 1198
筆 1197
▁slow 1196
至少 1196
▁normal 1195
▁strong 1195
機構 1195
▁north 1194
臟 1192
▁realized 1191
尋找 1191
google 1190
啟 1190
根據 1190
套 1189
暴力 1188
一隻 1187
證明 1187
現象 1186
當地 1186
藍 1186
財 1185
充滿 1183
島 1183
融 1183
獲得 1182
要求 1182
▁national 1181
▁size 1181
精神 1181
說明 1181
▁taken 1180
懂 1180
提出 1180
訓練 1180
巧 1179
抱 1179
祖 1179
▁explain 1177
▁save 1177
學到 1177
掌 1177
測試 1177
牙 1175
賴 1175
預測 1175
print 1174
訪 1174
結束 1172
綠 1172
cially 1171
壓力 1171
得要 1171
判 1170
趣 1170
▁begin 1167
野 1167
亂 1165
▁approach 1163
▁europe 1162
▁china 1160
▁send 1160
佈 1160
縮 1160
▁surface 1159
覆 1159
尺 1158
新聞 1158
電子 1158
▁eight 1157
▁fire 1157
共同 1157
▁office 1156
減 1156
育 1156
似乎 1155
▁increase 1154
到底 1154
佛 1153
13 1152
▁represent 1152
識 1152
風險 1152
倒 1151
協 1151
▁solve 1149
▁turned 1148
徵 1148
最大的 1148
酒 1148
麥 1147
獎 1146
還要 1146
擔 1145
▁continue 1144
▁travel 1144
並非 1144
忘 1144
竟 1144
上面 1142
快樂 1142
▁attention 1141
嚴重 1141
燃 1141
▁blue 1139
燈 1139
遍 1138
也許 1137
創新 1137
否 1137
老師 1137
達到 1137
有些人 1136
觀眾 1133
▁special 1132
▁dark 1129
▁kid 1129
後來 1128
永 1128
貝 1128
意味著 1127
▁pattern 1125
床 1125
▁electric 1124
▁那就是 1124
估 1124
熟 1124
隨著 1124
▁condition 1123
▁draw 1123
▁device 1121
姆 1120
險 1120
圈 1119
狂 1119
章 1119
...... 1118
▁ground 1118
父親 1118
▁lost 1117
▁happy 1116
實際 1116
錯誤 1116
予 1115
▁audience 1114
回答 1114
本身 1114
▁這是一個 1113
良 1113
▁chris 1112
競 1112
▁service 1111
快速 1111
願意 1110
規模 1109
應用 1108
草 1108
詩 1108
▁provide 1107
▁film 1106
以為 1106
找出 1106
洲 1106
癌症 1106
零 1106
婚 1105
民主 1105
瞭解 1105
危險 1104
▁obvious 1103
男性 1103
靜 1103
100 1101
時刻 1101
始 1100
記憶 1100
化學 1099
旁 1097
人員 1096
店 1096
延 1096
友 1095
模型 1095
衡 1095
十分 1094
▁similar 1092
每個人都 1092
▁quickly 1089
izing 1088
▁potential 1087
擬 1087
▁beginning 1086
▁medical 1086
▁resource 1086
供 1086
一件 1085
▁absolute 1081
坐在 1081
議題 1080
運用 1080
▁對吧 1079
村 1079
▁post 1078
▁transform 1078
▁invent 1077
經過 1077
大多數 1076
▁path 1075
恐懼 1075
▁map 1073
電視 1073
▁born 1072
浪 1072
堂 1070
無論 1070
試圖 1070
▁pen 1069
曼 1069
毛 1069
當你 1069
一條 1068
擔心 1068
廠 1067
雄 1067
突然 1066
告訴你 1065
大家都 1065
物理 1065
遭 1065
具有 1064
方向 1064
▁而這 1063
種族 1063
board 1062
▁rich 1062
▁operat 1060
任務 1060
▁opportunity 1059
假設 1059
同樣 1059
syn 1057
導致 1057
計算 1057
▁civil 1056
人民 1056
儘 1056
遇到 1056
▁truth 1054
必須要 1054
▁situation 1053
傾 1053
確定 1051
除了 1051
膠 1050
雜 1050
樓 1049
歐 1049
隔 1049
汽車 1048
舊 1047
最好的 1046
釋 1046
▁flow 1045
▁whatever 1044
狀態 1044
登 1044
堅 1043
爆 1041
興奮 1040
uck 1039
▁hospital 1039
悲 1039
損 1039
ologist 1038
秒 1038
夜 1037
似 1036
▁chance 1034
▁explor 1034
▁extreme 1034
很多人 1034
▁auto 1033
秘 1030
▁alone 1029
醫院 1029
▁general 1028
定義 1028
generat 1026
▁current 1026
▁require 1026
需求 1026
▁predict 1025
探索 1025
宣 1024
婦 1023
幕 1023
猩 1023
透 1023
▁smart 1020
享 1020
唱 1020
歐洲 1020
猜 1020
ified 1019
▁stage 1019
▁architect 1017
▁trust 1017
款 1017
等等 1017
翻 1015
重點 1013
▁enter 1011
互動 1011
談論 1011
附 1010
做什麼 1009
固 1009
最重要的 1009
歸 1009
每年 1009
▁character 1008
符 1008
聰明 1008
萊 1008
▁sleep 1007
要如何 1007
▁dead 1006
妳 1006
希 1006
帝 1006
默 1006
乾 1005
記錄 1005
網站 1004
changing 1003
▁easi 1003
陸 1003
呈現 1002
完美 1002
星期 1002
▁involve 1001
▁report 1001
夢想 1001
粒 1001
輪 1000
偉 999
溝 999
魯 999
王 998
畢 998
▁development 997
物種 995
獄 995
袋 994
材料 991
妙 989
漫 988
瘋 988
宗教 987
焦 987
乎 986
幻 986
顏 983
烈 980
遷 979
堆 978
貴 978
顆 977
鳥 977
牌 976
遊 976
ile 975
睛 973
糖 973
迪 973
/ 971
牆 971
碰 971
充 968
繞 968
攻 967
按 962
塞 960
滅 959
急 957
毀 951
愈 950
討 950
尤 948
礙 948
旦 947
酷 947
鐵 947
閉 946
冒 945
替 943
炸 943
瓦 943
揮 941
薩 940
吉 938
勝 937
虛 933
瑪 932
♪ 929
禁 927
恩 925
獻 925
拜 920
露 920
屋 917
游 917
穩 914
額 914
勞 913
嚴 913
守 913
究 913
植 912
q 907
操 904
武 901
耳 897
忙 896
封 895
培 893
貨 893
奏 892
劑 890
逐 890
震 890
雨 889
頻 889
聊 885
補 885
狗 884
龍 884
蒙 881
途 879
銷 876
裂 875
逃 875
乳 874
閱 874
跨 873
魔 873
黃 873
仰 872
幅 872
憂 872
循 870
殘 870
毫 870
脅 870
贏 868
儀 866
授 866
繁 865
辨 864
沉 863
▁san 857
慣 856
佳 855
鼠 855
載 854
省 851
勒 850
蜂 849
廳 847
庫 846
侵 845
嬰 845
蒂 845
遇 845
休 844
尊 844
奈 843
喔 842
輯 842
丁 840
槍 840
蘇 837
摩 835
幹 834
獲 833
膚 833
雅 833
搞 831
螢 831
怖 830
絡 829
鄰 829
丹 828
既 825
誌 824
麼 820
粉 818
碎 817
援 814
剩 813
材 813
滋 812
殖 809
撞 808
耗 808
戴 807
勇 803
盤 800
箱 799
練 798
香 797
丟 796
泡 796
傑 795
徑 795
托 794
訝 794
城 792
抽 791
抵 790
貼 790
圓 787
抓 787
航 787
搜 786
司 780
擺 780
滑 779
莉 779
災 778
股 778
伸 777
浮 776
肌 776
弟 773
忽 771
篇 771
洗 770
邀 769
凡 766
歡 766
糕 766
廢 763
蹤 763
榮 762
弄 761
拒 761
鄉 761
娜 759
尾 759
誤 758
握 756
旋 754
癌 753
朗 751
硬 751
烏 749
繪 749
』 745
佔 745
『 743
洋 742
燒 737
髮 737
黨 737
尚 735
購 735
扮 733
緣 733
敢 732
促 731
頁 731
稍 730
驅 729
池 727
偶 725
桌 724
跡 724
駕 724
擾 723
折 722
盛 722
搭 720
葉 720
審 718
岸 717
荷 715
茲 714
污 712
‧ 711
陰 711
夏 710
陷 709
朝 708
純 708
戀 707
批 706
緩 706
喝 705
寄 705
彩 702
繫 701
谷 701
怒 700
答 698
舒 696
賺 696
迎 696
鬱 696
健 695
苗 695
雲 695
療 693
漂 692
遞 692
志 691
儲 689
脈 686
橋 685
埃 684
孤 684
雪 684
獵 683
般 683
乏 682
末 681
研 681
乘 680
兵 678
鬥 678
墨 674
妹 674
歷 674
爬 673
肥 673
仔 670
珍 667
莎 667
駛 667
您 663
掃 663
淨 663
伙 660
煩 660
珊 659
售 657
雖 657
戲 653
飲 651
誠 648
疾 647
椅 646
軌 645
孕 644
厭 643
尖 643
暫 642
, 641
校 641
肢 639
腫 637
莫 637
邦 637
暖 634
郵 634
拯 633
辯 632
訴 631
餘 631
咖 629
齡 627
眠 625
磁 625
耶 625
瘤 624
殊 623
響 622
兄 621
寬 621
酸 621
菜 619
鐘 616
徒 613
喬 610
振 610
袖 609
鬆 606
啡 605
宜 605
蟻 605
仿 603
踏 603
偷 602
夢 602
干 602
故 602
紹 601
腿 601
惑 599
俄 598
• 595
功 595
捐 594
胎 593
午 592
帳 590
傢 588
刑 587
譜 587
輛 586
窗 585
啦 582
凱 581
喪 581
械 581
汗 578
歧 576
壁 573
搬 573
甲 572
潮 571
秀 571
憤 570
聞 570
壯 566
脆 566
悉 565
敏 565
豐 565
垃 564
圾 563
盟 563
涉 561
偵 559
累 559
蜜 559
貢 559
辛 558
遜 557
嚇 554
幼 553
陣 551
誕 549
貓 548
鞋 548
陽 547
串 546
壽 546
蚊 546
席 545
臂 545
奶 543
搖 539
慈 538
荒 538
譯 536
徹 534
賞 534
盒 533
疊 532
哲 531
帕 531
朵 530
鎮 530
拼 529
泰 529
肺 529
瑚 528
擁 527
琴 527
閃 527
é 526
奴 526
覽 526
漠 524
招 522
季 521
趨 521
麽 521
夥 519
麵 519
敵 518
雞 518
亦 516
菲 516
訂 515
貌 515
孔 514
晶 514
躍 513
兆 511
膜 511
幣 510
恢 510
遙 510
諸 509
薪 507
嘴 506
瓶 506
穆 505
敦 504
柏 503
渴 500
副 499
奪 496
奮 496
湯 496
檔 495
雕 495
堡 494
忍 494
妻 493
猶 493
姐 492
翰 492
龐 492
腐 490
允 489
艱 489
賦 489
鮮 487
峰 485
礦 482
黎 482
哩 480
杯 480
鋼 480
喻 478
恆 478
迴 477
敘 476
裔 473
騙 473
邁 467
挑 466
鏈 465
羊 464
趕 464
衰 462
詢 462
鎖 462
挺 461
裁 460
陌 460
恨 459
灰 459
煙 458
哭 457
父 457
昆 456
– 455
岩 455
橫 454
讚 454
噴 452
沿 450
恰 449
耐 449
映 448
署 446
春 444
尿 443
昂 443
謀 442
泥 440
玻 440
悅 438
羞 438
膽 438
鯨 438
泛 437
漢 435
稅 434
邏 434
拖 433
側 432
敬 432
督 432
飯 432
漁 431
瘧 430
菸 430
~ 428
借 427
庭 427
箭 427
廚 426
癒 426
販 424
鯊 424
噢 422
軸 422
撒 419
梯 419
磨 419
束 417
氏 417
祝 417
委 416
纖 416
罰 416
填 415
摧 415
妮 411
棟 411
潔 411
截 410
抑 410
謊 410
企 409
牢 409
駭 409
割 407
田 407
杉 405
着 405
挖 404
申 404
扎 403
皆 402
黏 401
誘 400
伍 399
擠 399
捉 398
芬 397
隸 397
騎 397
腺 396
$ 394
脂 394
宮 393
慶 393
擅 391
揭 390
漏 390
牧 390
插 388
欣 388
& 387
弗 387
腸 385
扭 384
紋 383
刊 382
康 382
擋 382
歉 382
餓 382
賓 381
泳 380
澳 380
嘿 379
壤 379
蘋 378
驟 378
猴 376
盲 376
藝 376
柯 375
胸 374
訓 374
埋 373
簽 372
臘 372
蠻 372
熊 371
罕 371
遵 370
謎 369
輩 369
刀 368
厚 368
央 367
饋 367
框 366
冠 364
欺 364
績 364
募 363
璃 363
薄 363
傲 362
贊 362
違 362
齒 362
刷 361
卵 361
哇 360
籍 360
飾 360
措 359
沃 359
鼻 359
霍 358
盧 357
糊 357
聆 357
枝 356
織 356
胖 356
蠢 356
凝 355
臺 355
拆 354
瞬 354
肩 354
襲 354
掘 353
晨 351
脊 351
哦 350
穴 350
鬼 350
魂 350
瑟 349
癮 349
紐 349
甜 348
厲 346
綁 345
渡 344
鍵 342
摺 341
柱 341
梅 340
鑽 340
鴉 340
嘛 339
擎 338
涯 338
掛 337
旗 336
涵 336
況 335
萄 335
葡 335
陳 334
侶 333
揚 333
滾 333
慘 332
濃 332
疼 332
蹟 332
“ 330
匹 330
掙 330
甘 330
遲 329
陪 329
桶 328
矛 327
餵 326
俱 325
吹 325
噸 325
迅 325
返 325
摸 324
縫 324
鹽 324
貸 323
虐 322
鵝 322
殼 320
拋 319
愉 318
辱 318
醉 318
屍 317
滴 317
垂 316
灣 316
諷 316
塗 315
崩 315
盾 314
貿 314
域 313
囚 312
豬 311
赫 311
撐 309
膀 309
躲 309
孫 308
沮 308
磯 308
韓 308
莊 307
豪 307
廉 306
牽 306
屠 305
粹 305
湖 304
稀 304
” 302
凌 302
彎 302
爐 302
貪 302
哺 301
擦 301
濾 301
煤 300
縱 300
叔 299
姻 299
櫃 299
紫 299
昨 297
濫 296
炎 296
粗 296
餅 296
丈 295
寧 295
礁 295
捲 294
獅 294
蛛 294
斥 293
賈 293
亡 292
胡 292
呎 291
獸 291
飽 291
寓 290
磅 290
艘 289
仇 288
后 287
塵 287
棲 287
爛 287
隆 287
雌 287
寸 286
輔 286
飢 286
託 285
逆 285
叛 284
籤 284
牲 283
氫 282
剝 281
川 281
彙 281
剖 278
棋 278
淡 278
皇 278
藻 278
杜 277
桑 277
欲 277
京 276
伐 276
咱 276
灘 276
芝 276
剪 275
妥 275
役 275
灌 275
耀 275
喊 274
婆 274
媒 273
躺 273
勃 272
俗 271
坡 271
顛 271
茶 270
冬 269
匯 269
慾 269
戒 269
螞 269
鈕 269
佩 268
凍 268
松 268
輻 268
債 267
慰 267
蠅 267
柔 266
盪 266
籌 266
詳 266
酵 266
姿 265
攜 265
繩 264
汙 263
驕 263
髓 263
占 262
怎 262
螺 262
蹈 262
僱 261
喚 261
愚 261
翼 261
贈 261
趟 261
弦 260
惱 260
冊 259
噪 259
悟 259
憐 259
棵 259
禱 259
廁 258
搶 258
澤 258
肝 258
址 257
娛 257
催 256
巢 256
帽 256
糧 255
葛 255
蜘 255
─ 254
呀 254
耍 254
腎 254
准 253
惠 253
盜 253
罐 253
齊 253
潤 252
甚 252
賭 252
仁 251
廊 251
説 251
脹 250
誇 250
赤 250
珠 249
註 249
辭 249
桿 247
欄 247
褲 247
醜 246
雇 246
姊 245
衍 245
宿 244
汀 243
虎 243
[ 242
李 242
逮 242
懸 241
琳 241
竭 240
惜 239
港 239
蒸 239
呆 238
憑 238
挫 238
逝 238
悶 237
濕 237
矽 237
踐 237
忠 236
曉 236
奔 235
胞 235
伏 234
淚 234
腹 234
譬 234
譽 234
煮 233
偽 232
叢 232
恥 232
猛 232
併 231
斑 231
葬 231
丘 230
墓 230
憶 230
棉 230
鷹 230
孟 229
幽 229
蝠 229
霧 229
勁 228
掠 228
詹 228
怨 227
拔 227
瀏 227
犧 225
盯 224
肪 224
豚 224
兼 223
稿 223
肅 223
邪 223
須 223
魅 223
契 222
拓 222
瓜 222
畏 222
痕 222
蝦 222
閒 222
攀 221
汽 221
湧 221
睹 221
笨 221
罩 221
醬 221
奉 220
胃 220
蛇 220
租 219
繼 219
腔 219
叉 218
倡 217
禍 217
郊 217
跌 216
霸 216
堪 215
憲 215
豆 215
髒 215
崇 214
彼 214
懲 214
溯 214
蝙 214
砍 213
倖 212
削 212
夾 212
斜 212
綜 212
漆 211
蓄 211
裕 211
謹 211
召 210
吐 210
吞 210
嘆 210
遮 209
醇 209
吻 208
烤 208
翅 208
骼 208
劣 207
寒 207
彷 207
掩 207
騷 207
狼 206
鹼 206
玉 205
蕾 205
囊 204
塢 204
捷 204
罹 204
勤 203
宏 203
戈 203
吵 202
唐 202
彿 202
疲 202
逼 202
懶 201
概 201
耕 201
闆 201
⋯ 200
淋 200
狹 200
屏 199
唸 198
浴 198
膨 198
宗 197
癱 197
糞 197
卓 196
敲 196
臭 196
井 195
擇 195
番 195
籃 195
鳴 194
囉 193
浸 193
胺 193
兇 192
姓 192
廷 192
撥 192
屈 191
拘 191
暢 191
樑 191
烹 191
爺 190
宅 189
晰 189
竊 189
詮 189
酬 189
庇 187
慌 187
咬 186
淺 186
篩 186
膝 186
嗨 185
巡 185
扯 185
瘓 185
筒 185
斤 184
沖 184
禦 184
豹 184
尬 183
裸 183
于 182
亨 182
尷 182
悔 182
挪 182
磚 182
艇 182
蘿 182
湊 181
鋪 181
闊 181
罷 180
舌 180
鑰 180
征 179
扇 179
扣 179
摔 179
紛 179
爵 178
什 177
坑 177
謙 177
謬 177
騰 177
# 176
痺 176
祈 175
艙 175
貫 175
汁 174
添 174
+ 173
潰 173
芭 173
蒐 173
傘 172
旱 172
棘 172
毯 172
沈 172
泉 172
矩 172
銅 172
丸 171
匿 171
炭 171
祕 171
衷 171
鉛 171
内 170
嗅 170
娃 170
撈 170
棕 170
瞧 170
綿 170
鬧 170
另 169
寂 169
撰 169
詐 169
頸 169
劍 168
津 168
疏 168
盆 168
肚 168
坊 167
巫 167
披 167
匙 166
巾 166
昏 166
椎 166
諧 166
忌 165
慎 165
蔬 165
龜 165
梭 164
煉 164
諮 164
卑 163
扔 163
歇 163
狄 163
碟 163
胰 163
鈴 163
韌 163
懼 162
撼 162
蝕 162
陶 162
犬 161
瞄 161
碑 161
禿 161
踢 161
嘉 160
欠 160
茄 160
洩 159
溶 159
羽 159
薯 159
銳 159
们 158
卷 158
〕 157
倉 157
抬 157
淹 157
〔 156
墊 156
飄 156
橘 155
峽 154
兔 153
宰 153
頌 153
壇 152
窟 152
纏 152
榜 151
碗 151
慨 150
薦 150
誓 150
踩 150
这 150
啤 149
噬 149
己 148
哀 147
墜 147
屁 147
彌 147
滲 147
蠟 147
君 146
唯 146
扶 146
撕 146
晃 146
泊 146
砸 146
緒 146
臥 146
伽 145
寺 145
穀 145
乙 144
吊 144
撫 144
漲 144
償 143
匠 143
橡 143
烷 143
飼 143
鬍 143
【 142
】 142
籠 142
訣 142
憾 141
磷 141
翔 141
韋 141
♫ 140
嚐 140
弊 140
緻 140
腰 140
鮪 140
垮 139
洪 139
炫 139
燥 139
闡 139
仙 138
倆 138
矮 138
肖 138
划 137
吋 137
抖 137
旨 137
畜 137
皂 137
蛙 137
刪 136
并 136
摘 136
氮 136
熔 136
董 136
賀 136
勾 135
捨 135
泣 135
秋 135
誼 135
郡 135
錶 135
仗 134
冥 134
咒 134
咪 134
昇 134
朱 134
溜 134
禧 134
轟 134
隧 134
劫 133
嶼 133
渦 133
釘 133
颶 133
黛 133
氛 132
籲 132
訟 132
詭 132
傻 131
嘯 131
攤 131
灑 131
筋 131
茨 131
鹿 131
喘 130
嘲 130
履 130
抹 130
鍊 130
頗 130
鮑 130
蕉 129
儕 128
嫁 128
寵 128
崔 128
徙 128
秩 128
糾 128
躁 128
駐 128
喉 127
棍 127
瀕 127
穎 127
罵 127
聘 127
鋒 127
乃 126
倦 126
夷 126
翁 126
蒼 126
駝 126
諒 125
釐 125
雀 125
í 124
姑 124
愧 124
撲 124
柴 124
祂 124
胚 124
螂 124
陋 124
撿 123
漿 123
潘 123
篷 123
蕩 123
鴨 123
噁 122
括 122
窩 122
僚 121
凸 121
塌 121
壺 121
慷 121
戚 121
撤 121
桃 121
盔 121
硫 121
蓬 121
軀 121
辜 121
嶄 120
穌 120
纜 120
腕 120
骸 120
殿 119
窄 119
蔓 119
泌 118
浩 118
猿 118
瘦 118
嵌 117
株 117
澡 117
癲 117
稚 117
= 116
挨 116
迦 116
顫 116
努 115
堵 115
廟 115
拾 115
挽 115
沼 115
薇 115
坎 114
沫 114
粘 114
采 114
伺 113
庸 113
築 113
脖 113
覓 113
阱 113
啓 112
喇 112
墮 112
妒 112
幟 112
札 112
菁 112
隙 112
呈 111
奢 111
枯 111
皺 111
á 110
券 110
哨 110
曝 110
熬 110
稻 110
賄 110
鸚 110
僵 109
嫉 109
崗 109
栽 109
浦 109
濟 109
菇 109
蔽 109
飪 109
帆 108
彗 108
艦 108
鱷 108
佐 107
侷 107
慕 107
燭 107
砂 107
芒 107
刮 106
悠 106
惹 106
癇 106
碩 106
裹 106
辣 106
鴿 106
函 105
呃 105
嫩 105
崛 105
敞 105
槽 105
盼 105
宴 104
廈 104
擲 104
攔 104
滯 104
瓊 104
瞭 104
芽 104
茱 104
蕭 104
逛 104
押 103
莖 103
姨 102
抄 102
搏 102
渺 102
溪 102
蜻 102
逗 102
悄 101
沾 101
澱 101
膏 101
酶 101
? 100
弓 100
拇 100
旺 100
楚 100
涼 100
淘 100
窺 100
芙 100
鈔 100
駱 100
甸 99
癡 99
祭 99
舍 99
喀 98
夕 98
笛 98
駁 98
癢 97
皿 97
貶 97
鑑 97
饒 97
个 96
扁 96
厄 95
墳 95
寡 95
屆 95
憫 95
曬 95
柬 95
疇 95
禽 95
紮 95
蝶 95
頒 95
枚 94
爍 94
萎 94
蟑 94
壘 93
妝 93
甦 93
蜓 93
贖 93
輝 93
拳 92
暈 92
茁 92
遣 92
「 91
撇 91
竹 91
糙 91
緬 91
蘊 91
襯 91
眉 90
虹 90
蝸 90
趾 90
銜 90
僧 89
啥 89
棚 89
焰 89
岡 88
欖 88
没 88
賊 88
賜 88
饑 88
恤 87
檯 87
淫 87
爪 87
狠 87
虧 87
袍 87
齣 87
寨 86
恒 86
繳 86
蟹 86
衫 86
侖 85
倘 85
嚮 85
堤 85
泄 85
爽 85
縛 85
摯 84
鉅 84
骯 84
憎 83
畝 83
穫 83
肆 83
臣 83
蘑 83
酮 83
叮 82
奎 82
崖 82
攪 82
橄 82
盈 82
裙 82
襪 82
鳳 82
妓 81
睜 81
聳 81
衆 81
峻 80
悖 80
捍 80
汰 80
烘 80
舟 80
○ 79
嗡 79
埔 79
稽 79
紗 79
莓 79
銘 79
靶 79
黴 79
ö 78
」 78
卜 78
妄 78
彰 78
沸 78
疤 78
碌 78
褐 78
鄙 78
剔 77
廂 77
溢 77
溺 77
瓣 77
疚 77
砰 77
酪 77
鍾 77
靴 77
塘 76
姦 76
抉 76
捏 76
杰 76
睪 76
繃 76
藤 76
闖 76
馴 76
恕 75
斗 75
淆 75
瑣 75
閣 75
勉 74
勘 74
吼 74
娘 74
嫌 74
槳 74
瑰 74
輟 74
釣 74
陀 74
馳 74
俯 73
擷 73
杏 73
溉 73
痴 73
缸 73
蓮 73
鎊 73
嘗 72
曆 72
杆 72
氦 72
瑕 72
紡 72
鴻 72
卸 71
嗜 71
妨 71
檻 71
氯 71
煞 71
狩 71
玫 71
甩 71
竅 71
茅 71
勸 70
嚨 70
廓 70
弧 70
暑 70
椰 70
樞 70
炮 70
産 70
茫 70
錫 70
鍋 70
鍛 70
隕 70
鷲 70
丙 69
侈 69
奠 69
忱 69
栓 69
淪 69
潑 69
疹 69
矯 69
竄 69
頑 69
匆 68
嘔 68
噠 68
梨 68
碧 68
籬 68
艷 68
萃 68
鋁 68
府 67
瀉 67
疵 67
祉 67
聼 67
鞭 67
顱 67
ㄧ 66
侮 66
崙 66
琪 66
瞞 66
舅 66
虔 66
蝴 66
迺 66
乖 65
俠 65
唇 65
斐 65
氨 65
淇 65
淵 64
熵 64
鋸 64
隘 64
馭 64
唾 63
慟 63
懈 63
戳 63
渾 63
貯 63
賂 63
悼 62
杖 62
欽 62
鉤 62
鮭 62
匱 61
叭 61
噓 61
恭 61
攸 61
毅 61
渠 61
澆 61
凹 60
嘻 60
嚼 60
娶 60
婪 60
嬤 60
巔 60
櫚 60
沛 60
燙 60
簾 60
簿 60
詛 60
ó 59
亥 59
帥 59
斧 59
昭 59
橙 59
眨 59
茂 59
譴 59
鑄 59
来 58
澄 58
煽 58
聰 58
苛 58
閡 58
霜 58
‘ 57
侯 57
凰 57
哎 57
妖 57
孵 57
宇 57
寞 57
懇 57
戮 57
柵 57
椒 57
槓 57
菈 57
衞 57
豫 57
逸 57
釀 57
鑒 57
鰭 57
为 56
乞 56
倚 56
兜 56
匈 56
嗶 56
扛 56
掀 56
貞 56
蹺 56
鈣 56
么 55
乍 55
巷 55
撓 55
枕 55
渣 55
瀑 55
瓷 55
箏 55
翠 55
萌 55
轄 55
陵 55
傭 54
殆 54
汲 54
灼 54
熄 54
犀 54
羚 54
聾 54
臀 54
謠 54
赴 54
錐 54
頃 54
咳 53
憊 53
瑜 53
盞 53
絨 53
絶 53
訃 53
趁 53
跋 53
雛 53
) 52
吶 52
嬉 52
屑 52
扼 52
歎 52
狸 52
豔 52
鈾 52
冗 51
嗚 51
姪 51
怯 51
愁 51
斬 51
梵 51
楊 51
漬 51
瞰 51
苯 51
迄 51
頰 51
馮 51
髖 51
・ 50
坪 50
惰 50
朽 50
柄 50
栩 50
檬 50
檸 50
瀚 50
煎 50
祥 50
窒 50
絞 50
蔥 50
轍 50
郎 50
〈 49
〉 49
俘 49
僑 49
僻 49
壟 49
娩 49
拙 49
摒 49
昔 49
朋 49
瞥 49
砲 49
綽 49
膩 49
蚌 49
螃 49
賠 49
逢 49
霄 49
仲 48
傅 48
剎 48
吟 48
夸 48
徘 48
狒 48
盃 48
肘 48
誦 48
賤 48
櫥 47
烯 47
胱 47
腥 47
蕊 47
踪 47
醣 47
飆 47
@ 46
係 46
呵 46
壩 46
悍 46
毆 46
毋 46
漩 46
炒 46
煌 46
牡 46
竿 46
貘 46
錦 46
圭 45
姬 45
徊 45
拐 45
柳 45
洽 45
珀 45
痊 45
稠 45
緯 45
繹 45
蕃 45
豎 45
遽 45
鞏 45
鱈 45
_ 44
体 44
倭 44
刃 44
拱 44
搗 44
擱 44
曠 44
瀝 44
癥 44
縣 44
芥 44
踝 44
迥 44
酋 44
閥 44
餌 44
佑 43
儒 43
匪 43
嗝 43
姥 43
孢 43
掏 43
昧 43
暱 43
泵 43
滔 43
焚 43
牟 43
蜥 43
蠣 43
賢 43
闢 43
髦 43
鬚 43
ç 42
侍 42
唔 42
噩 42
岌 42
悚 42
晴 42
猝 42
瞎 42
瞪 42
絆 42
綫 42
茸 42
魁 42
鹹 42
è 41
囑 41
奬 41
搔 41
攣 41
濱 41
狐 41
獁 41
瞻 41
禪 41
肋 41
逾 41
釷 41
霹 41
韻 41
〇 40
伎 40
僕 40
咎 40
喂 40
婁 40
捩 40
梁 40
瘟 40
窘 40
舖 40
藩 40
趴 40
跪 40
酗 40
鑿 40
顎 40
ã 39
劾 39
唉 39
岔 39
强 39
彥 39
恍 39
搐 39
棺 39
樁 39
淑 39
燕 39
疆 39
矚 39
簧 39
蘆 39
蟎 39
誡 39
賬 39
蹦 39
蹲 39
会 38
吱 38
咕 38
嘶 38
墟 38
涅 38
癖 38
盎 38
脾 38
蔔 38
蛻 38
諜 38
酚 38
鈍 38
銬 38
侏 37
匣 37
拌 37
梳 37
樸 37
氟 37
汐 37
澀 37
痙 37
睾 37
紳 37
繡 37
范 37
蛾 37
蠶 37
証 37
鐮 37
陡 37
靂 37
丑 36
啪 36
峇 36
慧 36
斃 36
澈 36
瘡 36
諺 36
鋰 36
鏽 36
霖 36
ï 35
〞 35
乒 35
凳 35
勻 35
咀 35
哮 35
够 35
屎 35
峭 35
捫 35
橢 35
檳 35
歪 35
殭 35
渥 35
猖 35
紊 35
綱 35
綻 35
締 35
繭 35
葵 35
蔑 35
蜴 35
訶 35
遏 35
顳 35
乓 34
囪 34
曙 34
榴 34
氾 34
穹 34
繆 34
腋 34
褪 34
餚 34
餡 34
( 33
à 33
ñ 33
亟 33
喧 33
岳 33
懦 33
晉 33
痲 33
綢 33
膛 33
舔 33
舵 33
芯 33
蠕 33
鄭 33
凶 32
哉 32
嗽 32
嚕 32
捧 32
槌 32
橇 32
沌 32
涸 32
狡 32
痢 32
秤 32
羨 32
芮 32
芳 32
薛 32
諱 32
说 32
轎 32
醃 32
鑲 32
鰻 32
傍 31
卦 31
厘 31
噗 31
崎 31
嶺 31
时 31
曳 31
样 31
梗 31
榨 31
江 31
湛 31
溼 31
獗 31
玄 31
秉 31
翹 31
脣 31
蕪 31
螳 31
輾 31
鏟 31
閘 31
° 30
俏 30
兌 30
嘎 30
揍 30
朔 30
漣 30
肽 30
菩 30
蜷 30
螈 30
袱 30
褶 30
褻 30
輿 30
^ 29
亭 29
剃 29
哼 29
夭 29
廿 29
扉 29
拭 29
敍 29
洶 29
漪 29
琢 29
瘠 29
矇 29
苔 29
蔗 29
蠑 29
裘 29
錘 29
鶴 29
仕 28
咚 28
嚏 28
垢 28
墻 28
抨 28
攏 28
灶 28
炙 28
烙 28
燼 28
种 28
紉 28
紓 28
繽 28
肇 28
諦 28
贅 28
质 28
鄂 28
鉀 28
鎚 28
ä 27
儉 27
勳 27
咯 27
哄 27
嗓 27
实 27
屢 27
彭 27
憧 27
旭 27
燦 27
痘 27
腱 27
芋 27
蚜 27
蚪 27
蝌 27
衹 27
蹂 27
躪 27
釁 27
鈦 27
骰 27
囤 26
婭 26
寐 26
弭 26
憬 26
懾 26
撮 26
晝 26
晦 26
暇 26
檀 26
歹 26
汪 26
沐 26
爹 26
睫 26
筏 26
粥 26
翱 26
胳 26
蔭 26
蛤 26
赦 26
跤 26
鍍 26
鏢 26
鐳 26
闔 26
鞘 26
魟 26
\ 25
俊 25
凋 25
嘟 25
尉 25
怡 25
惶 25
拷 25
揣 25
棱 25
焊 25
痹 25
眩 25
瞳 25
硏 25
筍 25
縈 25
莽 25
虜 25
蛀 25
逕 25
鲁 25
鵡 25
ō 24
卿 24
咻 24
嚥 24
御 24
挾 24
攬 24
现 24
甥 24
碾 24
穗 24
綴 24
膊 24
苷 24
詠 24
鄧 24
鎂 24
霉 24
魄 24
鱗 24
< 23
> 23
佬 23
决 23
劈 23
卒 23
啞 23
囂 23
媲 23
寇 23
惕 23
憋 23
抒 23
暨 23
暮 23
濺 23
瀰 23
畸 23
瘀 23
緝 23
臆 23
臍 23
臼 23
葫 23
蟀 23
蟋 23
詆 23
謗 23
譚 23
豌 23
踵 23
鈉 23
靡 23
鞍 23
顔 23
魏 23
鮟 23
鱇 23
齋 23
ü 22
别 22
劉 22
唷 22
墾 22
屜 22
捆 22
梢 22
欸 22
濤 22
焙 22
猾 22
砌 22
礫 22
窪 22
窯 22
簸 22
纂 22
胜 22
茉 22
蕈 22
藹 22
蜒 22
蜿 22
袒 22
蹣 22
軼 22
釦 22
鼬 22
𥚃 22
㚈 21
云 21
俾 21
僥 21
嗒 21
奥 21
帖 21
徽 21
扳 21
拴 21
掰 21
揉 21
摻 21
炬 21
煥 21
珈 21
疽 21
眶 21
眺 21
睦 21
薑 21
螫 21
蟾 21
辰 21
邱 21
鋅 21
霾 21
驢 21
鷗 21
× 20
剷 20
勿 20
咆 20
啜 20
喲 20
嘈 20
婉 20
寢 20
嶇 20
怠 20
恙 20
慚 20
拂 20
昌 20
枷 20
樺 20
熨 20
琉 20
睿 20
硝 20
稜 20
簷 20
膳 20
荼 20
蛆 20
誨 20
豁 20
跚 20
过 20
遼 20
酌 20
醯 20
錮 20
霰 20
餒 20
鯉 20
⁄ 19
亢 19
佃 19
冕 19
啃 19
喃 19
嗑 19
嘍 19
圳 19
妲 19
嬌 19
孜 19
学 19
峙 19
嵗 19
敷 19
桅 19
櫻 19
殯 19
穢 19
篤 19
耽 19
肛 19
蝨 19
褓 19
蹄 19
迂 19
还 19
醞 19
镜 19
魷 19
黒 19
黯 19
* 18
● 18
兮 18
几 18
叨 18
啄 18
喙 18
嘩 18
壕 18
屹 18
幀 18
弈 18
忒 18
惘 18
摹 18
斂 18
桂 18
榖 18
氈 18
濘 18
犁 18
狙 18
统 18
维 18
翩 18
聶 18
蘚 18
蚤 18
跛 18
醛 18
间 18
骷 18
髏 18
α 17
侃 17
冀 17
发 17
宛 17
幢 17
弔 17
旬 17
柚 17
毁 17
涕 17
湍 17
猥 17
琥 17
疙 17
瘩 17
眷 17
絃 17
絛 17
縷 17
耆 17
菊 17
虞 17
蚓 17
蚯 17
蠍 17
誹 17
远 17
遨 17
酥 17
鉗 17
銹 17
頹 17
鯛 17
鰓 17
ā 16
β 16
― 16
从 16
吾 16
咽 16
啼 16
堊 16
孝 16
径 16
擡 16
攫 16
昰 16
棠 16
瀆 16
瘁 16
瘍 16
睞 16
籽 16
絢 16
綺 16
緹 16
羣 16
胥 16
臻 16
蔚 16
蜢 16
见 16
蹋 16
輒 16
逍 16
遂 16
酯 16
醋 16
鬣 16
鼎 16
俚 15
倪 15
动 15
变 15
吳 15
呻 15
咧 15
唬 15
嘖 15
嚷 15
坍 15
嫖 15
宙 15
惦 15
据 15
揪 15
杭 15
枉 15
柢 15
楔 15
楷 15
横 15
淌 15
淩 15
潟 15
瘙 15
矢 15
礅 15
祟 15
羹 15
耙 15
腓 15
苟 15
蒲 15
蚱 15
逅 15
邂 15
醚 15
閾 15
颱 15
麋 15
麪 15
佼 14
儂 14
冤 14
咔 14
嗆 14
嚎 14
墅 14
媛 14
孰 14
宫 14
寥 14
寮 14
徐 14
懊 14
抛 14
斟 14
晾 14
殃 14
滌 14
焉 14
熠 14
燉 14
琦 14
瑙 14
硼 14
箇 14
篡 14
簇 14
粟 14
细 14
羈 14
觭 14
謾 14
辮 14
迭 14
醺 14
鉭 14
錨 14
鐸 14
閹 14
鳩 14
麩 14
ø 13
π 13
侄 13
凈 13
却 13
厥 13
吁 13
吮 13
咨 13
垣 13
处 13
奸 13
娓 13
媚 13
宕 13
帷 13
忿 13
惚 13
懺 13
挹 13
撩 13
曖 13
曦 13
梟 13
淒 13
渲 13
漓 13
潢 13
砷 13
窖 13
竇 13
笆 13
箔 13
縝 13
给 13
蛞 13
蛹 13
蜀 13
蜇 13
蝓 13
詫 13
諳 13
豈 13
迸 13
遛 13
錠 13
鐺 13
闌 13
霓 13
馨 13
魘 13
黍 13
ù 12
ú 12
̇ 12
丶 12
伶 12
佣 12
傀 12
儡 12
刹 12
喋 12
噱 12
夯 12
对 12
忡 12
悴 12
愕 12
扒 12
摟 12
楣 12
毗 12
气 12
沁 12
泯 12
熾 12
燴 12
畔 12
矗 12
磺 12
箴 12
絮 12
緘 12
约 12
脚 12
菍 12
蒜 12
蔻 12
薰 12
蝗 12
蝟 12
螨 12
覷 12
躬 12
轆 12
遁 12
遑 12
鈳 12
题 12
验 12
鯡 12
; 11
ô 11
万 11
丐 11
儼 11
兀 11
关 11
卅 11
叩 11
咫 11
咸 11
嘮 11
嚙 11
妊 11
娠 11
娼 11
宵 11
惟 11
憔 11
掐 11
揀 11
搆 11
晤 11
殞 11
殲 11
汚 11
汞 11
淤 11
滄 11
濁 11
濛 11
炊 11
烴 11
狓 11
璨 11
瓢 11
甫 11
盹 11
祇 11
秦 11
篝 11
緞 11
繚 11
纳 11
胼 11
膿 11
芹 11
苣 11
萵 11
蒿 11
藐 11
襟 11
訕 11
讲 11
貲 11
貽 11
蹊 11
迹 11
鉑 11
鑣 11
閲 11
隼 11
鞦 11
韆 11
頜 11
餾 11
© 10
® 10
ê 10
ī 10
佇 10
俐 10
冶 10
剋 10
勺 10
叟 10
咐 10
啵 10
啾 10
嘰 10
图 10
壅 10
奄 10
妃 10
廝 10
戾 10
扈 10
捅 10
擧 10
数 10
朦 10
术 10
殉 10
殷 10
氓 10
瀾 10
瑯 10
甄 10
疣 10
痣 10
瞠 10
糰 10
綑 10
缩 10
翡 10
胝 10
膈 10
臬 10
舶 10
芸 10
荊 10
菠 10
菱 10
蛄 10
蛭 10
贓 10
踱 10
蹴 10
轨 10
进 10
遐 10
阳 10
陲 10
静 10
餬 10
駡 10
ë 9
〝 9
两 9
俳 9
冉 9
剥 9
压 9
吝 9
吠 9
咿 9
哽 9
国 9
垠 9
尔 9
幌 9
庶 9
当 9
徉 9
徜 9
忖 9
恿 9
慫 9
憚 9
拗 9
拽 9
揹 9
搓 9
擘 9
攢 9
暸 9
朧 9
棗 9
榻 9
樽 9
殻 9
汶 9
滙 9
潦 9
澎 9
熙 9
燻 9
璀 9
离 9
窠 9
箋 9
羔 9
翌 9
脱 9
腮 9
膺 9
藜 9
蜍 9
装 9
裨 9
襄 9
踰 9
踴 9
蹩 9
运 9
逞 9
郭 9
鎳 9
雹 9
霎 9
饉 9
饗 9
鱒 9
黝 9
齦 9
δ 8
อ 8
东 8
丫 8
亙 8
儸 8
兰 8
减 8
呐 8
呦 8
呲 8
啕 8
噶 8
圃 8
妞 8
婊 8
孑 8
孚 8
将 8
幡 8
彆 8
徴 8
恣 8
惻 8
憩 8
懨 8
拮 8
攘 8
敎 8
旼 8
曰 8
椋 8
榭 8
橈 8
毬 8
温 8
熒 8
獺 8
獾 8
玲 8
璐 8
甾 8
眈 8
睏 8
瞌 8
瞼 8
矣 8
磐 8
祢 8
糗 8
脉 8
茴 8
蔡 8
蔣 8
裴 8
諭 8
譏 8
证 8
诉 8
賃 8
踮 8
軒 8
逹 8
邸 8
鈎 8
鈷 8
鐐 8
鑷 8
际 8
鞠 8
鷄 8
齧 8
仟 7
余 7
况 7
剽 7
劵 7
呂 7
呱 7
咦 7
嗦 7
噎 7
囘 7
囿 7
嫂 7
孳 7
层 7
岱 7
崑 7
彬 7
怦 7
愜 7
愿 7
慄 7
慵 7
懵 7
戊 7
拈 7
拚 7
捎 7
撬 7
无 7
暉 7
杞 7
极 7
毎 7
浹 7
涌 7
湃 7
滕 7
灸 7
犛 7
状 7
瑩 7
癬 7
睬 7
瞇 7
祐 7
祿 7
禾 7
稼 7
筷 7
綵 7
繕 7
红 7
经 7
结 7
羯 7
耘 7
胭 7
芻 7
茵 7
葦 7
蕨 7
蜚 7
蝎 7
螯 7
袓 7
袤 7
褸 7
襤 7
詰 7
詼 7
誣 7
认 7
让 7
躇 7
躊 7
轅 7
轻 7
邃 7
鈽 7
銻 7
银 7
颼 7
鷸 7
麟 7
â 6
ì 6
ل 6
م 6
ي 6
亚 6
佯 6
倣 6
偎 6
卉 6
单 6
卯 6
厨 6
叙 6
叠 6
叼 6
呸 6
唵 6
喳 6
喵 6
嗣 6
嗤 6
噥 6
噹 6
囓 6
坨 6
坷 6
壹 6
复 6
媳 6
嫻 6
孓 6
孿 6
屌 6
崽 6
嵐 6
嵴 6
帚 6
幔 6
廄 6
开 6
弛 6
彫 6
忑 6
愣 6
战 6
捱 6
掂 6
摀 6
擄 6
擒 6
敝 6
斕 6
旳 6
査 6
栗 6
梆 6
椿 6
涓 6
淖 6
满 6
濬 6
点 6
牴 6
琵 6
痠 6
磗 6
祸 6
稟 6
竣 6
粱 6
罌 6
羥 6
肓 6
腑 6
腴 6
苜 6
蓿 6
蚣 6
蛔 6
蜈 6
蟒 6
衪 6
观 6
訇 6
訢 6
詡 6
諉 6
謨 6
话 6
该 6
貂 6
费 6
赭 6
踉 6
踹 6
蹌 6
蹭 6
輓 6
迢 6
遢 6
邋 6
釉 6
释 6
鉻 6
鋤 6
鎘 6
鏘 6
鐲 6
铃 6
键 6
閑 6
问 6
陛 6
难 6
靛 6
靨 6
餃 6
騖 6
髂 6
鮫 6
鯖 6
鱸 6
鴕 6
鵑 6
鵰 6
鷈 6
鷿 6
鹵 6
黄 6
鼴 6
£ 5
¥ 5
ē 5
′ 5
▪ 5
与 5
亳 5
仅 5
佝 5
佷 5
俑 5
倔 5
僂 5
兹 5
凜 5
勛 5
匍 5
匐 5
区 5
吩 5
咄 5
咋 5
唆 5
嘀 5
嚒 5
嚓 5
坤 5
塚 5
墉 5
婿 5
媾 5
嬸 5
寳 5
寻 5
屯 5
岑 5
帛 5
幗 5
应 5
廬 5
张 5
弩 5
忐 5
悸 5
惺 5
戎 5
户 5
摞 5
擰 5
斡 5
昴 5
曹 5
枱 5
桔 5
椘 5
楓 5
榔 5
榕 5
槃 5
樟 5
櫛 5
歴 5
氚 5
氡 5
氪 5
测 5
浣 5
涎 5
湮 5
潜 5
燎 5
牒 5
獠 5
玷 5
琺 5
璇 5
璜 5
瓏 5
甕 5
疸 5
皈 5
睽 5
瞅 5
砧 5
祀 5
祼 5
积 5
稈 5
窿 5
竺 5
简 5
粕 5
縟 5
纽 5
组 5
缽 5
聿 5
肼 5
胯 5
脛 5
舐 5
莞 5
莢 5
葷 5
蓉 5
蕙 5
蜊 5
蟬 5
褥 5
謅 5
许 5
论 5
试 5
蹶 5
蹼 5
躡 5
軋 5
载 5
适 5
郁 5
酣 5
鈈 5
鈞 5
銫 5
鋃 5
鎢 5
鑚 5
鑼 5
隅 5
霆 5
韁 5
须 5
餿 5
騁 5
騾 5
鬃 5
鱖 5
麝 5
 5
` 4
ˊ 4
س 4
ع 4
ย 4
ร 4
่ 4
‬ 4
佻 4
倏 4
僮 4
儿 4
冪 4
刁 4
刋 4
匕 4
叱 4
吏 4
呤 4
咩 4
响 4
哢 4
唑 4
啖 4
喷 4
嗇 4
嗖 4
嗷 4
噘 4
噤 4
围 4
圣 4
块 4
埸 4
壆 4
娣 4
嫚 4
嫺 4
宋 4
宝 4
尹 4
岁 4
峨 4
巖 4
带 4
帮 4
怀 4
怵 4
恬 4
悽 4
愫 4
换 4
捶 4
搥 4
撙 4
攆 4
曇 4
杓 4
杳 4
柑 4
桁 4
梧 4
棧 4
樵 4
歿 4
氰 4
汝 4
沓 4
浬 4
涇 4
淬 4
潺 4
烊 4
熏 4
燧 4
爱 4
牀 4
犠 4
犢 4
猫 4
獃 4
獷 4
玆 4
痂 4
痰 4
痾 4
瘸 4
癸 4
盘 4
确 4
碘 4
碴 4
磕 4
礬 4
祆 4
祗 4
称 4
稔 4
穏 4
粑 4
粼 4
糜 4
糢 4
緃 4
终 4
绍 4
绕 4
罗 4
羡 4
耦 4
节 4
苞 4
苺 4
茜 4
茹 4
萍 4
萨 4
蒞 4
藴 4
蝿 4
螽 4
蠱 4
襁 4
覬 4
誒 4
謐 4
謔 4
譁 4
譎 4
请 4
诺 4
谢 4
贗 4
赢 4
跃 4
跺 4
踞 4
踫 4
蹙 4
蹬 4
轤 4
较 4
达 4
酊 4
酩 4
銥 4
銲 4
鋨 4
鋯 4
鎗 4
鏗 4
鐡 4
閂 4
隷 4
雾 4
靚 4
頤 4
顴 4
领 4
颳 4
驍 4
鱘 4
鳶 4
鵟 4
鹅 4
黜 4
鼾 4
龔 4
龕 4
! 3
 3
¡ 3
¿ 3
æ 3
ð 3
ʾ 3
ˋ 3
τ 3
ω 3
в 3
о 3
ы 3
‭ 3
€ 3
ㄠ 3
ㄡ 3
争 3
产 3
仆 3
众 3
侧 3
僞 3
兴 3
冲 3
剁 3
剌 3
剧 3
劊 3
匾 3
厮 3
参 3
吗 3
吭 3
唏 3
嘌 3
嘭 3
囧 3
圴 3
堿 3
増 3
壑 3
壬 3
头 3
娌 3
婀 3
婴 3
婷 3
嫵 3
嬴 3
孀 3
孱 3
孽 3
导 3
尽 3
屣 3
崁 3
巍 3
巒 3
帑 3
帧 3
广 3
廸 3
异 3
弒 3
彤 3
彪 3
态 3
恫 3
惋 3
戛 3
抺 3
拄 3
掮 3
揄 3
揶 3
搧 3
搪 3
携 3
搾 3
斋 3
暄 3
机 3
杠 3
栿 3
桎 3
梏 3
榚 3
榷 3
樍 3
檜 3
残 3
氘 3
氬 3
沱 3
涂 3
涷 3
渙 3
渝 3
渭 3
滚 3
漱 3
漾 3
潸 3
澹 3
瀟 3
灯 3
烽 3
燬 3
燿 3
猬 3
獼 3
环 3
珉 3
璞 3
璧 3
町 3
画 3
痿 3
瘴 3
癆 3
皙 3
皰 3
盂 3
盗 3
盥 3
眀 3
眸 3
矜 3
矫 3
砥 3
秃 3
窈 3
窕 3
笙 3
笞 3
筑 3
箂 3
箍 3
箝 3
籟 3
籮 3
类 3
紕 3
紜 3
絀 3
綹 3
纔 3
线 3
续 3
缓 3
罈 3
罔 3
罝 3
腆 3
舆 3
舛 3
舷 3
艮 3
莠 3
莱 3
葱 3
蕁 3
蕯 3
薔 3
蚕 3
蛉 3
袐 3
裱 3
裳 3
褒 3
覦 3
规 3
訛 3
謄 3
譙 3
计 3
记 3
賑 3
赚 3
赞 3
跎 3
跩 3
踨 3
蹉 3
釜 3
鈀 3
鈹 3
鉚 3
銑 3
銨 3
鋌 3
録 3
錳 3
鍁 3
鍥 3
鍰 3
鎝 3
鎧 3
鎵 3
针 3
长 3
閨 3
随 3
隠 3
隣 3
雯 3
项 3
顿 3
颗 3
飞 3
饞 3
駿 3
髪 3
髯 3
鯷 3
鯽 3
鰲 3
鱔 3
鲔 3
鴯 3
鵲 3
鶓 3
鶩 3
鶯 3
鷺 3
麓 3
麴 3
鼩 3
{ 2
} 2
 2
î 2
ò 2
ć 2
ğ 2
ı 2
š 2
ǔ 2
̀ 2
γ 2
μ 2
σ 2
м 2
ة 2
د 2
ص 2
ط 2
ك 2
ن 2
ه 2
و 2
प 2
म 2
र 2
े 2
् 2
ḥ 2
ẹ 2
ọ 2
→ 2
∇ 2
∙ 2
⋅ 2
♯ 2
き 2
の 2
れ 2
ㄅ 2
ㄌ 2
ㄎ 2
ㄟ 2
㖿 2
丢 2
亲 2
亿 2
伕 2
佗 2
俟 2
倂 2
偌 2
傌 2
傚 2
僈 2
儍 2
党 2
兢 2
养 2
冽 2
凯 2
刈 2
刨 2
卍 2
卧 2
厠 2
厰 2
吒 2
吓 2
吖 2
员 2
咂 2
啁 2
啉 2
啶 2
喏 2
嚢 2
囔 2
囗 2
圑 2
墩 2
声 2
奐 2
奖 2
奚 2
妁 2
妍 2
妾 2
姚 2
嫰 2
宽 2
寛 2
寰 2
岀 2
岐 2
岬 2
峡 2
嶽 2
师 2
弹 2
徧 2
徨 2
徳 2
忤 2
怔 2
怙 2
总 2
悵 2
悻 2
惯 2
憨 2
戕 2
戯 2
扙 2
扺 2
担 2
拎 2
挂 2
挐 2
掣 2
摰 2
擂 2
擕 2
擤 2
擯 2
断 2
昵 2
显 2
晒 2
晩 2
晷 2
暹 2
曜 2
曽 2
朶 2
杂 2
枪 2
枰 2
柩 2
柺 2
柿 2
桉 2
梠 2
楦 2
槐 2
様 2
樊 2
欢 2
欧 2
歛 2
歩 2
歳 2
殄 2
氂 2
氙 2
沬 2
泅 2
洐 2
淂 2
淮 2
渐 2
渤 2
溴 2
滂 2
瀨 2
烱 2
煦 2
煲 2
燄 2
犒 2
犰 2
狳 2
狽 2
猪 2
玳 2
珂 2
琶 2
瑁 2
瑋 2
甯 2
电 2
疝 2
疥 2
痍 2
痤 2
痼 2
瘻 2
瘾 2
癟 2
眇 2
矞 2
码 2
硅 2
硒 2
碉 2
稳 2
窥 2
竽 2
筐 2
筛 2
籓 2
糅 2
糠 2
紈 2
緲 2
縶 2
縹 2
纍 2
级 2
纸 2
纹 2
绝 2
继 2
缐 2
编 2
缚 2
缝 2
罂 2
羧 2
羸 2
耹 2
耿 2
联 2
聴 2
胛 2
脢 2
膾 2
臃 2
臊 2
舀 2
芘 2
苑 2
荀 2
莾 2
菡 2
萋 2
葩 2
葺 2
蓝 2
薈 2
虽 2
蚩 2
蚵 2
蚺 2
蜉 2
蝣 2
螅 2
袞 2
裇 2
褔 2
褫 2
褺 2
襞 2
覲 2
觴 2
訌 2
訐 2
訥 2
詣 2
諄 2
諢 2
识 2
诏 2
豺 2
賁 2
賅 2
负 2
资 2
赖 2
赛 2
赧 2
踽 2
蹓 2
躂 2
躉 2
躋 2
躥 2
軛 2
輊 2
轂 2
转 2
输 2
辟 2
边 2
酐 2
釙 2
鉆 2
鉸 2
鎬 2
鐧 2
閔 2
関 2
闗 2
门 2
阪 2
雋 2
靦 2
靭 2
韃 2
韜 2
頦 2
页 2
顺 2
预 2
飴 2
餽 2
饈 2
饌 2
饕 2
馥 2
駒 2
髋 2
髻 2
鬨 2
鯁 2
鯰 2
鰺 2
鱂 2
鲜 2
鴇 2
鵐 2
鵜 2
鶇 2
鶘 2
鶥 2
鸛 2
鹰 2
麾 2
黠 2
黽 2
齙 2
齲 2
 1
¢ 1
¤ 1
­ 1
¶ 1
å 1
û 1
ă 1
č 1
ě 1
ť 1
ū 1
ż 1
ǐ 1
ǒ 1
̊ 1
θ 1
φ 1
χ 1
а 1
и 1
н 1
п 1
р 1
с 1
х 1
∞ 1
⋄ 1
ね 1
ㄇ 1
ㄉ 1
ㄋ 1
ㄍ 1
ㄐ 1
ㄑ 1
ㄙ 1
ㄜ 1
ㄝ 1
ㄞ 1
ㄢ 1
ㄣ 1
ㄨ 1
㝷 1
㿂 1
䀚 1
䐘 1
䓬 1
䕶 1
业 1
严 1
丰 1
丼 1
丽 1
举 1
义 1
习 1
书 1
亜 1
仃 1
仵 1
伉 1
传 1
佘 1
佪 1
侗 1
侘 1
俎 1
俢 1
俬 1
俸 1
倌 1
値 1
倥 1
倩 1
债 1
倾 1
偃 1
偋 1
偕 1
偣 1
傋 1
储 1
傯 1
傹 1
儅 1
儖 1
儷 1
兑 1
冋 1
冏 1
冻 1
凄 1
凅 1
凑 1
処 1
凴 1
刚 1
删 1
刼 1
剂 1
剰 1
剿 1
办 1
务 1
匝 1
匡 1
医 1
华 1
卹 1
双 1
叵 1
号 1
吆 1
吔 1
听 1
启 1
吲 1
吽 1
吿 1
呯 1
咤 1
哆 1
哌 1
唁 1
唄 1
啐 1
啷 1
喫 1
嗄 1
嗞 1
嗪 1
嘣 1
嘸 1
噌 1
噙 1
噵 1
噼 1
嚀 1
嚯 1
囀 1
囌 1
囍 1
囫 1
囯 1
囹 1
圄 1
圆 1
圇 1
圏 1
圮 1
场 1
坚 1
坵 1
垏 1
垛 1
垫 1
垻 1
埠 1
堇 1
堰 1
塭 1
塲 1
墙 1
墬 1
壙 1
夀 1
奋 1
奕 1
奘 1
奨 1
奻 1
妠 1
妺 1
姍 1
姣 1
姱 1
姶 1
娱 1
婕 1
婢 1
媞 1
媮 1
嬅 1
嬗 1
嬡 1
嬬 1
孃 1
寿 1
専 1
尅 1
尓 1
尘 1
尙 1
尻 1
屄 1
屝 1
岛 1
峋 1
峍 1
峛 1
峯 1
崴 1
嶋 1
嶙 1
巳 1
巿 1
帘 1
幷 1
庄 1
庵 1
廖 1
廩 1
廰 1
廻 1
弋 1
弘 1
录 1
彻 1
徇 1
徠 1
徦 1
徬 1
忝 1
怏 1
恪 1
悦 1
惆 1
惓 1
惧 1
惬 1
愄 1
愴 1
慍 1
慼 1
憟 1
懐 1
懟 1
懣 1
戍 1
戟 1
扑 1
扞 1
扦 1
报 1
抻 1
拣 1
择 1
挈 1
挲 1
挷 1
捂 1
捚 1
捺 1
掦 1
揆 1
揑 1
揩 1
搽 1
摃 1
摆 1
摑 1
摖 1
摳 1
撚 1
撢 1
撻 1
擻 1
攥 1
敕 1
敖 1
斁 1
旎 1
旖 1
旧 1
昜 1
暦 1
暪 1
朕 1
朴 1
条 1
杲 1
杵 1
构 1
枒 1
枓 1
枸 1
柝 1
标 1
桀 1
桐 1
梉 1
棣 1
椴 1
椽 1
楕 1
楞 1
楠 1
榆 1
榛 1
榫 1
槁 1
槨 1
槪 1
槲 1
橐 1
檐 1
櫸 1
欉 1
殛 1
殤 1
殫 1
殮 1
毽 1
氖 1
氢 1
汛 1
沅 1
沏 1
洄 1
洌 1
洟 1
洮 1
浙 1
浼 1
涡 1
涿 1
湄 1
溃 1
滓 1
漥 1
潇 1
潭 1
澇 1
澍 1
澗 1
濒 1
濔 1
濡 1
濳 1
瀘 1
炳 1
热 1
焗 1
煨 1
煱 1
燜 1
牝 1
犄 1
犎 1
狭 1
猁 1
猎 1
猙 1
猞 1
獒 1
獰 1
玀 1
玃 1
玖 1
珐 1
珞 1
珣 1
珥 1
珮 1
珼 1
瑤 1
璄 1
璣 1
璽 1
瓔 1
瓞 1
瓿 1
甪 1
畦 1
疪 1
痁 1
痱 1
瘉 1
瘺 1
癈 1
癩 1
癵 1
皸 1
盅 1
盖 1
眊 1
眯 1
瞟 1
矓 1
碁 1
碇 1
碸 1
磊 1
磋 1
磧 1
礪 1
祛 1
禀 1
秏 1
秣 1
秧 1
稣 1
稹 1
穠 1
窍 1
窣 1
窳 1
窸 1
竪 1
竸 1
笈 1
笫 1
筫 1
筱 1
筵 1
篆 1
篙 1
篾 1
簌 1
簍 1
簟 1
簣 1
簪 1
籐 1
籥 1
粖 1
粧 1
粪 1
粵 1
糸 1
紂 1
紿 1
絹 1
綣 1
綳 1
綸 1
緋 1
緖 1
縂 1
縐 1
縳 1
繈 1
繮 1
纈 1
纒 1
纓 1
纤 1
纪 1
纵 1
绒 1
绩 1
绪 1
绳 1
绿 1
缅 1
缉 1
缪 1
缷 1
罄 1
罅 1
网 1
罸 1
羌 1
羲 1
羶 1
翕 1
耄 1
耪 1
聒 1
聵 1
肮 1
肱 1
肴 1
胆 1
胍 1
胴 1
胶 1
脇 1
脗 1
脯 1
腈 1
腚 1
腩 1
腼 1
膁 1
膘 1
臚 1
臧 1
舎 1
艄 1
艏 1
芉 1
芦 1
芫 1
苏 1
苒 1
茍 1
荏 1
荖 1
荻 1
荽 1
莘 1
获 1
菏 1
菓 1
萸 1
葆 1
葚 1
葧 1
蒡 1
蓆 1
蔕 1
蕎 1
蕞 1
蕴 1
薊 1
薏 1
藕 1
藪 1
蘶 1
蘸 1
蚝 1
蚶 1
蛸 1
蜃 1
蜣 1
蜱 1
螬 1
蟄 1
蟆 1
蟳 1
蠋 1
蠐 1
蠔 1
蠵 1
蠹 1
衊 1
袈 1
裊 1
裟 1
褂 1
褙 1
襌 1
襠 1
襬 1
覇 1
覈 1
视 1
觎 1
訖 1
詔 1
詬 1
詺 1
誅 1
誆 1
誑 1
誔 1
諂 1
諤 1
諫 1
謢 1
譟 1
譠 1
讉 1
讖 1
讞 1
设 1
评 1
诊 1
诠 1
语 1
谈 1
谧 1
豢 1
貉 1
貎 1
賍 1
賒 1
贋 1
责 1
贸 1
贾 1
赠 1
赶 1
趙 1
踡 1
踼 1
躱 1
輞 1
轶 1
辈 1
辍 1
辐 1
辫 1
违 1
迧 1
迼 1
逄 1
选 1
递 1
逬 1
逰 1
遥 1
邑 1
邻 1
郝 1
郷 1
酰 1
醅 1
醍 1
醐 1
醪 1
釒 1
釓 1
釩 1
鈸 1
鉈 1
鉍 1
鉬 1
鉺 1
銓 1
銙 1
銣 1
鋇 1
鋥 1
鍆 1
鍬 1
鍺 1
鏤 1
鏨 1
鐙 1
钱 1
钴 1
铁 1
铆 1
锋 1
错 1
锥 1
閏 1
閤 1
閻 1
闋 1
闐 1
闕 1
队 1
阮 1
阶 1
陃 1
陞 1
险 1
隂 1
隄 1
隋 1
隡 1
隴 1
雁 1
雉 1
雍 1
霑 1
靼 1
鞣 1
韵 1
頇 1
頽 1
顉 1
顢 1
顥 1
颂 1
颐 1
颤 1
颯 1
飈 1
飊 1
风 1
飩 1
餇 1
餋 1
餛 1
餞 1
餧 1
饜 1
馀 1
駄 1
駑 1
駙 1
騃 1
驁 1
驛 1
骑 1
鬈 1
鬢 1
鬩 1
鮋 1
鰈 1
鰤 1
鰥 1
鰩 1
鰹 1
鱉 1
鱼 1
鲍 1
鲸 1
鳊 1
鳍 1
鳯 1
鴐 1
鴞 1
鴣 1
鴴 1
鶲 1
鶼 1
鷓 1
鸌 1
鼯 1
鼹 1
齜 1
齪 1
齷 1
龄 1
﨧 1
𤔡 1
𤠣 1
madeupword0000 0
madeupword0001 0
